{
  "version": "1.0",
  "truncation": null,
  "padding": null,
  "added_tokens": [
    {
      "id": 0,
      "content": "<pad>",
      "single_word": false,
      "lstrip": false,
      "rstrip": false,
      "normalized": false,
      "special": true
    },
    {
      "id": 1,
      "content": "<unk>",
      "single_word": false,
      "lstrip": false,
      "rstrip": false,
      "normalized": false,
      "special": true
    },
    {
      "id": 2,
      "content": "<bos>",
      "single_word": false,
      "lstrip": false,
      "rstrip": false,
      "normalized": false,
      "special": true
    },
    {
      "id": 3,
      "content": "<eos>",
      "single_word": false,
      "lstrip": false,
      "rstrip": false,
      "normalized": false,
      "special": true
    }
  ],
  "normalizer": {
    "type": "NFKC"
  },
  "pre_tokenizer": {
    "type": "ByteLevel",
    "add_prefix_space": false,
    "trim_offsets": true,
    "use_regex": true
  },
  "post_processor": null,
  "decoder": {
    "type": "ByteLevel",
    "add_prefix_space": true,
    "trim_offsets": true,
    "use_regex": true
  },
  "model": {
    "type": "BPE",
    "dropout": null,
    "unk_token": "<unk>",
    "continuing_subword_prefix": null,
    "end_of_word_suffix": null,
    "fuse_unk": false,
    "byte_fallback": false,
    "ignore_merges": false,
    "vocab": {
      "<pad>": 0,
      "<unk>": 1,
      "<bos>": 2,
      "<eos>": 3,
      "!": 4,
      "\"": 5,
      "#": 6,
      "$": 7,
      "%": 8,
      "&": 9,
      "'": 10,
      "(": 11,
      ")": 12,
      "*": 13,
      "+": 14,
      ",": 15,
      "-": 16,
      ".": 17,
      "/": 18,
      "0": 19,
      "1": 20,
      "2": 21,
      "3": 22,
      "4": 23,
      "5": 24,
      "6": 25,
      "7": 26,
      "8": 27,
      "9": 28,
      ":": 29,
      ";": 30,
      "<": 31,
      "=": 32,
      ">": 33,
      "?": 34,
      "@": 35,
      "A": 36,
      "B": 37,
      "C": 38,
      "D": 39,
      "E": 40,
      "F": 41,
      "G": 42,
      "H": 43,
      "I": 44,
      "J": 45,
      "K": 46,
      "L": 47,
      "M": 48,
      "N": 49,
      "O": 50,
      "P": 51,
      "Q": 52,
      "R": 53,
      "S": 54,
      "T": 55,
      "U": 56,
      "V": 57,
      "W": 58,
      "X": 59,
      "Y": 60,
      "Z": 61,
      "[": 62,
      "\\": 63,
      "]": 64,
      "^": 65,
      "_": 66,
      "`": 67,
      "a": 68,
      "b": 69,
      "c": 70,
      "d": 71,
      "e": 72,
      "f": 73,
      "g": 74,
      "h": 75,
      "i": 76,
      "j": 77,
      "k": 78,
      "l": 79,
      "m": 80,
      "n": 81,
      "o": 82,
      "p": 83,
      "q": 84,
      "r": 85,
      "s": 86,
      "t": 87,
      "u": 88,
      "v": 89,
      "w": 90,
      "x": 91,
      "y": 92,
      "z": 93,
      "{": 94,
      "|": 95,
      "}": 96,
      "~": 97,
      "¡": 98,
      "¢": 99,
      "£": 100,
      "¤": 101,
      "¥": 102,
      "¦": 103,
      "§": 104,
      "¨": 105,
      "©": 106,
      "ª": 107,
      "«": 108,
      "¬": 109,
      "®": 110,
      "¯": 111,
      "°": 112,
      "±": 113,
      "²": 114,
      "³": 115,
      "´": 116,
      "µ": 117,
      "¶": 118,
      "·": 119,
      "¸": 120,
      "¹": 121,
      "º": 122,
      "»": 123,
      "¼": 124,
      "½": 125,
      "¾": 126,
      "¿": 127,
      "Â": 128,
      "Ã": 129,
      "Ä": 130,
      "Å": 131,
      "Æ": 132,
      "Ç": 133,
      "È": 134,
      "É": 135,
      "Ê": 136,
      "Ë": 137,
      "Ì": 138,
      "Í": 139,
      "Î": 140,
      "Ï": 141,
      "Ð": 142,
      "Ñ": 143,
      "Ò": 144,
      "Ó": 145,
      "Ô": 146,
      "Õ": 147,
      "Ö": 148,
      "×": 149,
      "Ø": 150,
      "Ù": 151,
      "Ú": 152,
      "Û": 153,
      "à": 154,
      "á": 155,
      "â": 156,
      "ã": 157,
      "ä": 158,
      "å": 159,
      "æ": 160,
      "ç": 161,
      "è": 162,
      "é": 163,
      "ê": 164,
      "ë": 165,
      "ì": 166,
      "í": 167,
      "î": 168,
      "ï": 169,
      "ð": 170,
      "Ġ": 171,
      "ġ": 172,
      "Ģ": 173,
      "ģ": 174,
      "Ĥ": 175,
      "ĥ": 176,
      "Ħ": 177,
      "ħ": 178,
      "Ĩ": 179,
      "ĩ": 180,
      "Ī": 181,
      "ī": 182,
      "Ĭ": 183,
      "ĭ": 184,
      "Į": 185,
      "į": 186,
      "İ": 187,
      "ı": 188,
      "Ĳ": 189,
      "ĳ": 190,
      "Ĵ": 191,
      "ĵ": 192,
      "Ķ": 193,
      "ķ": 194,
      "ĸ": 195,
      "Ĺ": 196,
      "ĺ": 197,
      "Ļ": 198,
      "ļ": 199,
      "Ľ": 200,
      "ľ": 201,
      "Ŀ": 202,
      "ŀ": 203,
      "Ł": 204,
      "ł": 205,
      "Ń": 206,
      "Ġt": 207,
      "Ġa": 208,
      "he": 209,
      "in": 210,
      "re": 211,
      "Ġthe": 212,
      "on": 213,
      "er": 214,
      "Ġs": 215,
      "Ġw": 216,
      "at": 217,
      "Ġo": 218,
      "en": 219,
      "Ġc": 220,
      "it": 221,
      "is": 222,
      "an": 223,
      "or": 224,
      "Ġb": 225,
      "es": 226,
      "ed": 227,
      "Ġf": 228,
      "ing": 229,
      "Ġp": 230,
      "ou": 231,
      "Ġan": 232,
      "al": 233,
      "Ġto": 234,
      "ar": 235,
      "Ġm": 236,
      "Ġin": 237,
      "Ġof": 238,
      "Ġd": 239,
      "Ġh": 240,
      "âĢ": 241,
      "as": 242,
      "ic": 243,
      "Ġand": 244,
      "Ġth": 245,
      "le": 246,
      "om": 247,
      "ion": 248,
      "ll": 249,
      "ent": 250,
      "Ġn": 251,
      "Ġl": 252,
      "Ġre": 253,
      "st": 254,
      "ve": 255,
      "ly": 256,
      "Ġe": 257,
      "ro": 258,
      "Ġbe": 259,
      "Ġg": 260,
      "id": 261,
      "ut": 262,
      "ac": 263,
      "ot": 264,
      "ĠT": 265,
      "Ġthat": 266,
      "Ġon": 267,
      "ĠI": 268,
      "ay": 269,
      "ĠS": 270,
      "Ġis": 271,
      "et": 272,
      "im": 273,
      "ad": 274,
      "am": 275,
      "ow": 276,
      "âĢĻ": 277,
      "Ġfor": 278,
      "se": 279,
      "ig": 280,
      "ver": 281,
      "ĠA": 282,
      "ld": 283,
      "ur": 284,
      "ct": 285,
      "ĠC": 286,
      "Ġu": 287,
      "Ġst": 288,
      "Ġy": 289,
      "Ġit": 290,
      "Ġhe": 291,
      "ir": 292,
      "ation": 293,
      "Ġwh": 294,
      "ith": 295,
      "ĠM": 296,
      "ce": 297,
      "ter": 298,
      "Ġwe": 299,
      "ol": 300,
      "il": 301,
      "Ġwith": 302,
      "Ġas": 303,
      "ch": 304,
      "ĠB": 305,
      "ill": 306,
      "nd": 307,
      "ĠP": 308,
      "Ġwas": 309,
      "ers": 310,
      "Ġyou": 311,
      "ĠâĢ": 312,
      "ke": 313,
      "Ġcon": 314,
      "Ġde": 315,
      "Ġr": 316,
      "her": 317,
      "ate": 318,
      "if": 319,
      "ag": 320,
      "Ġat": 321,
      "Ġha": 322,
      "ĠW": 323,
      "Ġse": 324,
      "ĠH": 325,
      "Ġpro": 326,
      "ore": 327,
      "pp": 328,
      "ul": 329,
      "ri": 330,
      "ment": 331,
      "Ġare": 332,
      "ĠD": 333,
      "Ġcom": 334,
      "us": 335,
      "est": 336,
      "Ġ1": 337,
      "ĠR": 338,
      "ist": 339,
      "and": 340,
      "ain": 341,
      "op": 342,
      "ĠThe": 343,
      "igh": 344,
      "end": 345,
      "Ġ2": 346,
      "rom": 347,
      "ort": 348,
      "te": 349,
      "Ġne": 350,
      "od": 351,
      "ĠF": 352,
      "Ġ(": 353,
      "âĢĿ": 354,
      "um": 355,
      "un": 356,
      "Ġex": 357,
      "res": 358,
      "ab": 359,
      "ĠN": 360,
      "Ġv": 361,
      "Ġnot": 362,
      "ity": 363,
      "Ġhave": 364,
      "ess": 365,
      "ould": 366,
      "os": 367,
      "Ġor": 368,
      "th": 369,
      "Ġby": 370,
      "ĠG": 371,
      "ive": 372,
      "Ġal": 373,
      "ant": 374,
      "Ġfrom": 375,
      "'s": 376,
      "oc": 377,
      "Ġsu": 378,
      "art": 379,
      "ĠL": 380,
      "el": 381,
      "Ġsh": 382,
      "em": 383,
      "qu": 384,
      "Ġthis": 385,
      "nt": 386,
      "ight": 387,
      "ust": 388,
      "pe": 389,
      "Ġle": 390,
      "ies": 391,
      "Ġsa": 392,
      "ĠE": 393,
      "Ġch": 394,
      "The": 395,
      "Ġab": 396,
      "ĠâĢľ": 397,
      "00": 398,
      "out": 399,
      "ie": 400,
      "all": 401,
      "red": 402,
      "Ġhas": 403,
      "ack": 404,
      "Ġpl": 405,
      "ally": 406,
      "ĠJ": 407,
      "Ġgo": 408,
      "ard": 409,
      "Ġhis": 410,
      "ome": 411,
      "iv": 412,
      "ost": 413,
      "our": 414,
      "ear": 415,
      "gh": 416,
      "ap": 417,
      "Ġtr": 418,
      "Ġj": 419,
      "ud": 420,
      "ĠO": 421,
      "ak": 422,
      "ast": 423,
      "Ġdo": 424,
      "Ġthey": 425,
      "Ġsaid": 426,
      "Ġwill": 427,
      "Ġbut": 428,
      "rou": 429,
      "Ġwor": 430,
      "ĠU": 431,
      "Ġwhe": 432,
      "Ġcan": 433,
      "ge": 434,
      "ich": 435,
      "Ġk": 436,
      "ok": 437,
      "Ġall": 438,
      "Ġwho": 439,
      "ide": 440,
      "Ġ\"": 441,
      "ther": 442,
      "ans": 443,
      "ame": 444,
      "Ġtheir": 445,
      "Ġout": 446,
      "ial": 447,
      "ff": 448,
      "ice": 449,
      "ong": 450,
      "pl": 451,
      "ure": 452,
      "age": 453,
      "one": 454,
      "Ġmore": 455,
      "ike": 456,
      "ions": 457,
      "act": 458,
      "Ġup": 459,
      "ous": 460,
      "Ġme": 461,
      "Ġad": 462,
      "ine": 463,
      "ep": 464,
      "ber": 465,
      "Ġabout": 466,
      "ated": 467,
      "Ġwere": 468,
      "ia": 469,
      "ĠK": 470,
      "Ġso": 471,
      "og": 472,
      "Ġone": 473,
      "ime": 474,
      "ra": 475,
      "ect": 476,
      "pt": 477,
      "Ġus": 478,
      "Ġhad": 479,
      "ub": 480,
      "are": 481,
      "Ġwould": 482,
      "Ġ20": 483,
      "cc": 484,
      "Ġcl": 485,
      "Ġwhich": 486,
      "xt": 487,
      "Ġag": 488,
      "ake": 489,
      "Ġim": 490,
      "ind": 491,
      "ue": 492,
      "Ġte": 493,
      "very": 494,
      "Ġoff": 495,
      "Ġcomp": 496,
      "Ġun": 497,
      "iz": 498,
      "Ġbeen": 499,
      "so": 500,
      "per": 501,
      "Ġen": 502,
      "Ġint": 503,
      "ary": 504,
      "ign": 505,
      "au": 506,
      "Ġcont": 507,
      "Ġyear": 508,
      "ĠTh": 509,
      "ace": 510,
      "ip": 511,
      "..": 512,
      "ew": 513,
      "ook": 514,
      "Ġlike": 515,
      "ven": 516,
      "Ġinc": 517,
      "ose": 518,
      "ry": 519,
      "Ġpe": 520,
      "Ġman": 521,
      "ays": 522,
      "ĠIn": 523,
      "Ġsp": 524,
      "Ġres": 525,
      "Ġper": 526,
      "able": 527,
      "ass": 528,
      "ite": 529,
      "ire": 530,
      "ord": 531,
      "ib": 532,
      "Ġother": 533,
      "ile": 534,
      "mer": 535,
      "ĠSt": 536,
      "Ġsome": 537,
      "Ġ201": 538,
      "ople": 539,
      "Ġover": 540,
      "ence": 541,
      "ks": 542,
      "ations": 543,
      "ress": 544,
      "Ġnew": 545,
      "Ġalso": 546,
      "Ġdis": 547,
      "Ġthere": 548,
      "ical": 549,
      "ult": 550,
      "Ġbec": 551,
      "own": 552,
      "Ġthan": 553,
      "Ġar": 554,
      "ance": 555,
      "ough": 556,
      "Ġthem": 557,
      "ount": 558,
      "Ġpart": 559,
      "ru": 560,
      "ree": 561,
      "port": 562,
      "Ġapp": 563,
      "Ġwhen": 564,
      "ail": 565,
      "ond": 566,
      "Ġwhat": 567,
      "Ġpeople": 568,
      "Ġqu": 569,
      "Ġyour": 570,
      "fter": 571,
      "int": 572,
      "orm": 573,
      "ase": 574,
      "Ġsc": 575,
      "ĠCh": 576,
      "Ġits": 577,
      "Ġjust": 578,
      "av": 579,
      "Ġany": 580,
      "of": 581,
      "ĠY": 582,
      ".âĢĿ": 583,
      "Ġkn": 584,
      "Ġtime": 585,
      "lic": 586,
      "Ġher": 587,
      "ĠIt": 588,
      "ction": 589,
      "ach": 590,
      "ens": 591,
      "ian": 592,
      "Ġif": 593,
      "Ġrec": 594,
      "Ġtw": 595,
      "Ġmy": 596,
      "Ġinto": 597,
      "reat": 598,
      "Ġget": 599,
      "vel": 600,
      "irst": 601,
      "Ġwork": 602,
      "ĠV": 603,
      "ound": 604,
      "du": 605,
      "ob": 606,
      "Ġ3": 607,
      "ere": 608,
      "ors": 609,
      "ings": 610,
      "ory": 611,
      "ick": 612,
      "Ġour": 613,
      "ident": 614,
      "ove": 615,
      "Ġpre": 616,
      "ition": 617,
      "Ġplay": 618,
      "Ġno": 619,
      "ang": 620,
      "ink": 621,
      "text": 622,
      ",âĢĿ": 623,
      "ause": 624,
      "ates": 625,
      "ark": 626,
      "ade": 627,
      "hing": 628,
      "wn": 629,
      "Ġro": 630,
      "vers": 631,
      "Ġ-": 632,
      "Ġpol": 633,
      "Ġshe": 634,
      "Ġ19": 635,
      "amp": 636,
      "ĠHe": 637,
      "Ġafter": 638,
      "Ġhow": 639,
      "Ġfirst": 640,
      "Ġcould": 641,
      "Ġco": 642,
      "ious": 643,
      "ne": 644,
      "nder": 645,
      "ild": 646,
      "Ġacc": 647,
      "|>": 648,
      "<|": 649,
      "endof": 650,
      "endoftext": 651,
      "ons": 652,
      "'t": 653,
      "aw": 654,
      "Ġfe": 655,
      "Ġhim": 656,
      "Ġpo": 657,
      "âĢľ": 658,
      "hed": 659,
      "ov": 660,
      "Ġonly": 661,
      "erv": 662,
      "ict": 663,
      "Ġtwo": 664,
      "rit": 665,
      "Ġpr": 666,
      "form": 667,
      "Ġbl": 668,
      "ish": 669,
      "Ġspe": 670,
      "Ġcomm": 671,
      "Ġact": 672,
      "ĠâĢĵ": 673,
      "Ġdec": 674,
      "we": 675,
      "Ġbet": 676,
      ".\"": 677,
      "ning": 678,
      "Ġback": 679,
      "Ġmost": 680,
      "ck": 681,
      "ces": 682,
      "oy": 683,
      "ater": 684,
      "rough": 685,
      "Ġagain": 686,
      "ft": 687,
      "Ġam": 688,
      "Ġfo": 689,
      "iff": 690,
      "ise": 691,
      "round": 692,
      "Ġdid": 693,
      "day": 694,
      "Ġunder": 695,
      "ual": 696,
      "ents": 697,
      "ull": 698,
      "lud": 699,
      "ublic": 700,
      "Ġdes": 701,
      "Ġbecause": 702,
      "Ġnow": 703,
      "Ġwant": 704,
      "sel": 705,
      "Ġyears": 706,
      "Ġcons": 707,
      "tern": 708,
      "man": 709,
      "iss": 710,
      "ĠâĢĶ": 711,
      "Ġ4": 712,
      "Ġknow": 713,
      "Ġ$": 714,
      "Ġinv": 715,
      "Ġatt": 716,
      "Ġneed": 717,
      "Ġeven": 718,
      "ĠWe": 719,
      "ec": 720,
      "ments": 721,
      "Ġadd": 722,
      "ced": 723,
      "Ġsec": 724,
      "Ġind": 725,
      "ĠUn": 726,
      "ting": 727,
      "Ġsee": 728,
      ",\"": 729,
      "Ġsupp": 730,
      "uch": 731,
      "fore": 732,
      "urn": 733,
      "Ġevery": 734,
      "old": 735,
      "In": 736,
      "ock": 737,
      "pect": 738,
      "Ġwhere": 739,
      "Ġmake": 740,
      "ject": 741,
      "Ġem": 742,
      "Ġthese": 743,
      "Ġdon": 744,
      "Ġ5": 745,
      "Ġlook": 746,
      "vern": 747,
      "ational": 748,
      "oss": 749,
      "Th": 750,
      "Ġbu": 751,
      "Ġbeing": 752,
      "ily": 753,
      "ĠAnd": 754,
      "Ġway": 755,
      "ating": 756,
      "Ġmany": 757,
      "Ġev": 758,
      "ump": 759,
      "ng": 760,
      "Ġmay": 761,
      "Ġrem": 762,
      "ason": 763,
      "ĠTr": 764,
      "Ġright": 765,
      "ont": 766,
      "Ġinclud": 767,
      "ĠBut": 768,
      "iew": 769,
      "ased": 770,
      "lect": 771,
      "ited": 772,
      "Ġthink": 773,
      "Ġrel": 774,
      "row": 775,
      "Ġthen": 776,
      "aking": 777,
      "Ġdiff": 778,
      "Ġcall": 779,
      "Ġdef": 780,
      "ied": 781,
      "ood": 782,
      "les": 783,
      "Ġthrough": 784,
      ").": 785,
      "rib": 786,
      "Ġreg": 787,
      "Ġimp": 788,
      "other": 789,
      "Ġvery": 790,
      "Ġlast": 791,
      "Ġshow": 792,
      "uring": 793,
      "meric": 794,
      "Ġthose": 795,
      "Ġsy": 796,
      "Ġfl": 797,
      "Ġsay": 798,
      "ty": 799,
      "Ġpres": 800,
      "ative": 801,
      "ities": 802,
      "Ġph": 803,
      "Ġmuch": 804,
      "Ġshould": 805,
      "ath": 806,
      "Ġbr": 807,
      "Ġstate": 808,
      "ss": 809,
      "ower": 810,
      "ific": 811,
      "tle": 812,
      "ics": 813,
      "ĠThis": 814,
      "und": 815,
      "ĠWh": 816,
      "Ġ200": 817,
      "hen": 818,
      "Ġcount": 819,
      "Ġbel": 820,
      "Ġdown": 821,
      "Ġmon": 822,
      "oth": 823,
      "Ġwell": 824,
      "arg": 825,
      "Ġdoes": 826,
      "Ġend": 827,
      "arly": 828,
      "Ġass": 829,
      "als": 830,
      "omet": 831,
      "Ġown": 832,
      "ward": 833,
      "llow": 834,
      "ts": 835,
      "ters": 836,
      "Ġ[": 837,
      "ible": 838,
      "ange": 839,
      "Ġstart": 840,
      "Ġlong": 841,
      "Ġuse": 842,
      "up": 843,
      "gr": 844,
      "âĢĶ": 845,
      "Ġgovern": 846,
      "Ġbefore": 847,
      "ĠNew": 848,
      "Ġke": 849,
      "ince": 850,
      "ĠAmeric": 851,
      "ues": 852,
      "oun": 853,
      "Ġfin": 854,
      "Ġreport": 855,
      "ife": 856,
      "Ġteam": 857,
      "ble": 858,
      "olog": 859,
      "Ġstud": 860,
      "Ġmade": 861,
      "ek": 862,
      "lp": 863,
      "Ġworld": 864,
      "ism": 865,
      "ren": 866,
      "Ġsuch": 867,
      "Ġsm": 868,
      "ility": 869,
      "ful": 870,
      "),": 871,
      "rest": 872,
      "Ġagainst": 873,
      "erson": 874,
      "Ġgoing": 875,
      "ener": 876,
      "ually": 877,
      "Ġsub": 878,
      "ix": 879,
      "roup": 880,
      "com": 881,
      "ork": 882,
      "It": 883,
      "Ġeff": 884,
      "Ġgood": 885,
      "Ġsur": 886,
      "its": 887,
      "tain": 888,
      "000": 889,
      "ists": 890,
      "Ġent": 891,
      "Ġac": 892,
      "Ġprov": 893,
      "Ġpoint": 894,
      "illion": 895,
      "Ġgu": 896,
      "...": 897,
      "Ġgame": 898,
      "stem": 899,
      "ys": 900,
      "ier": 901,
      "ars": 902,
      "uss": 903,
      "Ġset": 904,
      "Ġwhile": 905,
      "Ġhelp": 906,
      "Ġlead": 907,
      "Ġstill": 908,
      "gan": 909,
      "imes": 910,
      ".<|": 911,
      "We": 912,
      "Ġsays": 913,
      "Ġgr": 914,
      "Ġinter": 915,
      "ank": 916,
      "ms": 917,
      "ax": 918,
      "Ġmin": 919,
      "ween": 920,
      "Ġprodu": 921,
      "cess": 922,
      "Ġinte": 923,
      "Ġtake": 924,
      "Ġstr": 925,
      "Ġconf": 926,
      "Ġ6": 927,
      "io": 928,
      "cy": 929,
      "Ġcol": 930,
      "ef": 931,
      "Ġsim": 932,
      "Ġob": 933,
      "alk": 934,
      "air": 935,
      "self": 936,
      "Ġoffic": 937,
      "ever": 938,
      "Ġinst": 939,
      "Ġcr": 940,
      "ures": 941,
      "Ġdisc": 942,
      "Ġsign": 943,
      "way": 944,
      "Ġnum": 945,
      "arch": 946,
      "Ġed": 947,
      "any": 948,
      "Ġbetween": 949,
      "Ġthough": 950,
      "Ġsame": 951,
      "Ġlaw": 952,
      "Ġdiffere": 953,
      "atch": 954,
      "ah": 955,
      "Ġ10": 956,
      "Ġhigh": 957,
      "Ġop": 958,
      "ool": 959,
      "led": 960,
      "ution": 961,
      "gg": 962,
      "ner": 963,
      "Ġsomet": 964,
      "read": 965,
      "hes": 966,
      "Ġter": 967,
      "ames": 968,
      "land": 969,
      "Ġgovernment": 970,
      "ĠRe": 971,
      "cent": 972,
      "velop": 973,
      "ted": 974,
      "Ġthree": 975,
      "--": 976,
      "hip": 977,
      "Ġser": 978,
      "ouse": 979,
      "ave": 980,
      "Ġfound": 981,
      "Ġaround": 982,
      "Ġhere": 983,
      "Ġtrans": 984,
      "Ġrun": 985,
      "Ġreal": 986,
      "ives": 987,
      "ather": 988,
      "Ġins": 989,
      "Ġgroup": 990,
      "ets": 991,
      "ten": 992,
      ".[": 993,
      "ĠLe": 994,
      "Ġsystem": 995,
      "Ġref": 996,
      "ved": 997,
      "Ġmod": 998,
      "Ġexp": 999,
      "Ġcour": 1000,
      "Ġreally": 1001,
      "ĠAl": 1002,
      "Ġwom": 1003,
      "ving": 1004,
      "Ġmem": 1005,
      "ern": 1006,
      "Ġsupport": 1007,
      "Ġpublic": 1008,
      "Ġcar": 1009,
      "cept": 1010,
      "con": 1011,
      "ĠYou": 1012,
      "Ġmed": 1013,
      "ins": 1014,
      "ale": 1015,
      "ĠAr": 1016,
      "oh": 1017,
      "az": 1018,
      "ci": 1019,
      "irect": 1020,
      "Ġused": 1021,
      "Ġfact": 1022,
      "ph": 1023,
      "ton": 1024,
      "Ġhand": 1025,
      "alth": 1026,
      "Ġfam": 1027,
      "Ġsl": 1028,
      "ying": 1029,
      "Ġret": 1030,
      "Ġserv": 1031,
      "Ġrep": 1032,
      "Ġexper": 1033,
      "Ġgreat": 1034,
      "Ġcur": 1035,
      "ense": 1036,
      "ices": 1037,
      "Ġhapp": 1038,
      "cial": 1039,
      "Ġday": 1040,
      "ivers": 1041,
      "ĠCl": 1042,
      "Ġ7": 1043,
      "ell": 1044,
      "ĠCom": 1045,
      "Ġext": 1046,
      "Ġcap": 1047,
      "Ġfr": 1048,
      "Ġmonth": 1049,
      "Ġread": 1050,
      "ĠTrump": 1051,
      "Ġboth": 1052,
      "Ġfind": 1053,
      "ines": 1054,
      "Ġduring": 1055,
      "ĠThey": 1056,
      "Ġlit": 1057,
      "Ġdet": 1058,
      "pr": 1059,
      "ision": 1060,
      "med": 1061,
      "ĠAs": 1062,
      "Ġaut": 1063,
      "ular": 1064,
      "the": 1065,
      "Ġbig": 1066,
      "Ġdevelop": 1067,
      "Ġperson": 1068,
      "Ġtold": 1069,
      "Ġweek": 1070,
      "Ġfollow": 1071,
      "min": 1072,
      "ages": 1073,
      "ared": 1074,
      "ĠIs": 1075,
      "ĠSh": 1076,
      "ex": 1077,
      "akes": 1078,
      "Ġcent": 1079,
      "Ġwar": 1080,
      "ording": 1081,
      "Ġiss": 1082,
      "ically": 1083,
      "Ġsince": 1084,
      "ash": 1085,
      "ves": 1086,
      "Ġcre": 1087,
      "orth": 1088,
      "Ġfew": 1089,
      "Wh": 1090,
      "Ġleg": 1091,
      "Ġ8": 1092,
      "Ġpolit": 1093,
      "Ġresp": 1094,
      "Ġbo": 1095,
      "Ġopp": 1096,
      "aj": 1097,
      "ered": 1098,
      "Ġexpl": 1099,
      "Ġbelie": 1100,
      "rent": 1101,
      "chool": 1102,
      "Ġcontin": 1103,
      "Ġlot": 1104,
      "get": 1105,
      "iet": 1106,
      "Ġcamp": 1107,
      "Ġrequ": 1108,
      "Ġtoo": 1109,
      "ric": 1110,
      "Ġanother": 1111,
      "Ġcle": 1112,
      "Ġ0": 1113,
      "Ġsomething": 1114,
      "Ġcor": 1115,
      "Ġput": 1116,
      "Ġfil": 1117,
      "20": 1118,
      "ata": 1119,
      "ention": 1120,
      "Ġgener": 1121,
      "Ġplan": 1122,
      "Ġvot": 1123,
      "Ġinvest": 1124,
      "der": 1125,
      "arl": 1126,
      "Ġdifferent": 1127,
      "Ġloc": 1128,
      "bers": 1129,
      "ross": 1130,
      "ĠDe": 1131,
      "Ġsoc": 1132,
      "Ġlife": 1133,
      "Ġinf": 1134,
      "Ġrele": 1135,
      "ĠIf": 1136,
      "uc": 1137,
      "Ġpower": 1138,
      "ĠFr": 1139,
      "ized": 1140,
      "Ġhead": 1141,
      "Ġask": 1142,
      "Ġche": 1143,
      "ik": 1144,
      "ute": 1145,
      "Ġchild": 1146,
      "This": 1147,
      "Ġposs": 1148,
      "Ġcommun": 1149,
      "thing": 1150,
      "ield": 1151,
      "Ġthings": 1152,
      "ness": 1153,
      "Ġchar": 1154,
      "Ġcome": 1155,
      "Ġfar": 1156,
      "ient": 1157,
      "Ġpass": 1158,
      "Ġart": 1159,
      "ience": 1160,
      "ants": 1161,
      "Ġmight": 1162,
      "ody": 1163,
      "Ġadv": 1164,
      "ital": 1165,
      "Ġeach": 1166,
      "son": 1167,
      "Ġmet": 1168,
      "Ġnext": 1169,
      "Ġmark": 1170,
      "Ġ9": 1171,
      "Ġquest": 1172,
      "ret": 1173,
      "Ġbus": 1174,
      "Ġsecond": 1175,
      "Ġnever": 1176,
      "Ġdep": 1177,
      "Ġpost": 1178,
      "Ġgot": 1179,
      "iness": 1180,
      "Ġbest": 1181,
      "view": 1182,
      "ĠUS": 1183,
      "ĠâĢĺ": 1184,
      "Ġdirect": 1185,
      "Ġfeel": 1186,
      "Ġopen": 1187,
      "Ġallow": 1188,
      "Ġpercent": 1189,
      "ĠAn": 1190,
      "ize": 1191,
      "Ġconc": 1192,
      "rat": 1193,
      "ĠPro": 1194,
      "Ġseem": 1195,
      "ired": 1196,
      "ug": 1197,
      "ĠThat": 1198,
      "Ġhome": 1199,
      "Ġdem": 1200,
      "Ġmillion": 1201,
      "nce": 1202,
      "osed": 1203,
      "chn": 1204,
      "orn": 1205,
      "Ġ'": 1206,
      "Ġ.": 1207,
      "ĠFor": 1208,
      "ple": 1209,
      "co": 1210,
      "gram": 1211,
      "ling": 1212,
      "Ġdist": 1213,
      "mber": 1214,
      "Ġincre": 1215,
      "Ġplace": 1216,
      "Ġpri": 1217,
      "Ġincluding": 1218,
      "Ġav": 1219,
      "ral": 1220,
      "ĠRep": 1221,
      "less": 1222,
      "Ġcontro": 1223,
      "Ġhard": 1224,
      "Ġresult": 1225,
      "ately": 1226,
      "Ġcomple": 1227,
      "Ġnumber": 1228,
      "Ġcare": 1229,
      "conom": 1230,
      "Ġhum": 1231,
      "Ġimport": 1232,
      "line": 1233,
      "Ġide": 1234,
      "Ġproble": 1235,
      "arn": 1236,
      "aim": 1237,
      "ĠBl": 1238,
      "Ġtop": 1239,
      "Ġinform": 1240,
      "Ġcountry": 1241,
      "Ġel": 1242,
      "riend": 1243,
      "oney": 1244,
      "Ġseason": 1245,
      "Ġrecent": 1246,
      "ead": 1247,
      "Ġfour": 1248,
      "ably": 1249,
      "Ġbetter": 1250,
      "But": 1251,
      "Ġmil": 1252,
      "Ġgl": 1253,
      "Ġturn": 1254,
      "Ġwithout": 1255,
      "Ġbuild": 1256,
      "uro": 1257,
      "ished": 1258,
      "ways": 1259,
      "Ġtri": 1260,
      "ract": 1261,
      "Ġinterest": 1262,
      "Ġbro": 1263,
      "Ġann": 1264,
      "Ġlittle": 1265,
      "Ġmov": 1266,
      "Ġappro": 1267,
      "Ġdr": 1268,
      "Ġless": 1269,
      "ĠInd": 1270,
      "ĠZ": 1271,
      "Ġlet": 1272,
      "gy": 1273,
      "10": 1274,
      "Ġcalled": 1275,
      "Ġstand": 1276,
      "ration": 1277,
      "ama": 1278,
      "Ġrest": 1279,
      "app": 1280,
      "Ġcase": 1281,
      "ised": 1282,
      "Ġattack": 1283,
      "Ġpartic": 1284,
      "Ġmove": 1285,
      "ering": 1286,
      "tt": 1287,
      "Ġbeh": 1288,
      "Ġusing": 1289,
      "Ġpay": 1290,
      "Ġwomen": 1291,
      "Ġfull": 1292,
      "Ġkeep": 1293,
      "__": 1294,
      "Ġprev": 1295,
      "Ġpop": 1296,
      "rem": 1297,
      "ency": 1298,
      "Ġmain": 1299,
      "Ġleft": 1300,
      "ajor": 1301,
      "leg": 1302,
      "ann": 1303,
      "Ġfun": 1304,
      "Ġdidn": 1305,
      "Ġschool": 1306,
      "to": 1307,
      "Ġwin": 1308,
      "ina": 1309,
      "ĠThere": 1310,
      "ature": 1311,
      "Ġtest": 1312,
      "Ġprogram": 1313,
      "Ġnews": 1314,
      "ains": 1315,
      "uck": 1316,
      "ertain": 1317,
      "Ġpolice": 1318,
      "He": 1319,
      "Ġeconom": 1320,
      "ology": 1321,
      "Ġform": 1322,
      "Ġsit": 1323,
      "Ġeffect": 1324,
      "ode": 1325,
      "be": 1326,
      "aign": 1327,
      "Ġcompany": 1328,
      "Ġdri": 1329,
      "ohn": 1330,
      "inal": 1331,
      "Ġwrit": 1332,
      "ĠAmerican": 1333,
      "arge": 1334,
      "iving": 1335,
      "iversity": 1336,
      "mit": 1337,
      "ided": 1338,
      "ready": 1339,
      "Ġrece": 1340,
      "Ġcurrent": 1341,
      "Ġdata": 1342,
      "ined": 1343,
      "hor": 1344,
      "Ġpos": 1345,
      "Ġsmall": 1346,
      "iver": 1347,
      "Ġval": 1348,
      "ird": 1349,
      "Ġprocess": 1350,
      "'re": 1351,
      "Ġbook": 1352,
      "ger": 1353,
      "Ġ--": 1354,
      "rap": 1355,
      "ĠUnited": 1356,
      "Ġlist": 1357,
      "Ġprom": 1358,
      "Ġpresident": 1359,
      "used": 1360,
      "Ġtechn": 1361,
      "Ġeas": 1362,
      "ians": 1363,
      "Ġlevel": 1364,
      "atter": 1365,
      "ĠSo": 1366,
      "Ġfree": 1367,
      "ploy": 1368,
      "Ġchange": 1369,
      "Ġsol": 1370,
      "Ġhist": 1371,
      "Ġunt": 1372,
      "Ġalways": 1373,
      "Ġmoney": 1374,
      "reen": 1375,
      "Ġalready": 1376,
      "Ġcampaign": 1377,
      "Ġlater": 1378,
      "Ġstory": 1379,
      "Ġprof": 1380,
      "cl": 1381,
      "Ġofficial": 1382,
      "ruct": 1383,
      "ĠShe": 1384,
      "Ġjob": 1385,
      "Ġexpect": 1386,
      "Ġbre": 1387,
      "aff": 1388,
      "ron": 1389,
      "wit": 1390,
      "Ġwhy": 1391,
      "Ġhealth": 1392,
      "ards": 1393,
      "Ġclass": 1394,
      "Ġproject": 1395,
      "Ġclaim": 1396,
      "Ġrese": 1397,
      "Ġtalk": 1398,
      "Ġable": 1399,
      "ĠBe": 1400,
      "Ġmajor": 1401,
      "Ġchang": 1402,
      "ural": 1403,
      "iven": 1404,
      "Ġorgan": 1405,
      "Ġkill": 1406,
      "Ġbusiness": 1407,
      "Ġthing": 1408,
      "Ġspec": 1409,
      "ĠPh": 1410,
      "Ġoper": 1411,
      "Ġcity": 1412,
      "Ġest": 1413,
      "ases": 1414,
      "Ġsk": 1415,
      "lection": 1416,
      "Ġty": 1417,
      "ĠHow": 1418,
      "Ġpast": 1419,
      "stand": 1420,
      "here": 1421,
      "urs": 1422,
      "anc": 1423,
      "ission": 1424,
      "outh": 1425,
      "ĠQ": 1426,
      "Ġaway": 1427,
      "ending": 1428,
      "Ġview": 1429,
      "Ġold": 1430,
      "side": 1431,
      "Ġinformation": 1432,
      "ney": 1433,
      "Ġhappen": 1434,
      "ĠGo": 1435,
      "Ġvis": 1436,
      "urity": 1437,
      "Ġmen": 1438,
      "Ġcost": 1439,
      "Ġpat": 1440,
      "Ġstre": 1441,
      "oot": 1442,
      "ury": 1443,
      "ior": 1444,
      "sc": 1445,
      "Ġmust": 1446,
      "ained": 1447,
      "Ġdoesn": 1448,
      "Ġimportant": 1449,
      "Ġdesign": 1450,
      "ĠRuss": 1451,
      "ĠCan": 1452,
      "Ġleast": 1453,
      "ides": 1454,
      "ĠSe": 1455,
      "ption": 1456,
      "Ġfamily": 1457,
      "Ġtell": 1458,
      "ĠAd": 1459,
      "Ġhop": 1460,
      "acy": 1461,
      "Ġ18": 1462,
      "Ġdays": 1463,
      "ley": 1464,
      "Ġaff": 1465,
      "ĠOb": 1466,
      "resident": 1467,
      "ured": 1468,
      "Ġmaking": 1469,
      "Ġcame": 1470,
      "ider": 1471,
      "Ġdeal": 1472,
      "Ġkind": 1473,
      "Ġconst": 1474,
      "Ġedit": 1475,
      "Ġgrow": 1476,
      "ĠSp": 1477,
      "Ġenough": 1478,
      "oad": 1479,
      "Ġfriend": 1480,
      "Ġvar": 1481,
      "ample": 1482,
      "by": 1483,
      "eral": 1484,
      "ality": 1485,
      "rist": 1486,
      "ccess": 1487,
      "Ġpolic": 1488,
      "Ġelect": 1489,
      "ĠJohn": 1490,
      "pped": 1491,
      "Ġworking": 1492,
      "ox": 1493,
      "Ġmar": 1494,
      "ror": 1495,
      "arent": 1496,
      "Ġuntil": 1497,
      "ising": 1498,
      "els": 1499,
      "ries": 1500,
      "Ġtook": 1501,
      "Ġrecord": 1502,
      "Ġpolitical": 1503,
      "Ġ12": 1504,
      "Ġlarge": 1505,
      "ived": 1506,
      "augh": 1507,
      "Ġtax": 1508,
      "ator": 1509,
      "Ġline": 1510,
      "ĠMar": 1511,
      "Ġintern": 1512,
      "As": 1513,
      "ional": 1514,
      "gu": 1515,
      "Ġformer": 1516,
      "ĠRepublic": 1517,
      "Ġdel": 1518,
      "ified": 1519,
      "Ġla": 1520,
      "aining": 1521,
      "Ġ15": 1522,
      "ony": 1523,
      "ĠSy": 1524,
      "Ġes": 1525,
      "Ġbecome": 1526,
      "ush": 1527,
      "enn": 1528,
      "If": 1529,
      "ocrat": 1530,
      "ister": 1531,
      "Ġve": 1532,
      "work": 1533,
      "Ġwon": 1534,
      "Ġaccording": 1535,
      "aring": 1536,
      "St": 1537,
      "iber": 1538,
      "Ġvide": 1539,
      "alf": 1540,
      "ĠMc": 1541,
      "Ġactually": 1542,
      "Ġfund": 1543,
      "ĠEuro": 1544,
      "Ġfore": 1545,
      "Ġgive": 1546,
      "Ġdeb": 1547,
      "year": 1548,
      "Ġdev": 1549,
      "aps": 1550,
      "Ġ199": 1551,
      "iol": 1552,
      "Ġmean": 1553,
      "bs": 1554,
      "ware": 1555,
      "Ġhuman": 1556,
      "Ġoften": 1557,
      "Ġprote": 1558,
      "wh": 1559,
      "Ġsever": 1560,
      "Ġra": 1561,
      "most": 1562,
      "Ġbas": 1563,
      "ĠDem": 1564,
      "Ġtimes": 1565,
      "ER": 1566,
      "ott": 1567,
      "Ġair": 1568,
      "Ġfac": 1569,
      "Ġgames": 1570,
      "ched": 1571,
      "Ġchildren": 1572,
      "ane": 1573,
      "uture": 1574,
      "Ġmarket": 1575,
      "Ġever": 1576,
      "Ġbit": 1577,
      "ats": 1578,
      "ĠPl": 1579,
      "ĠSc": 1580,
      "Ġplayers": 1581,
      "Ġcharac": 1582,
      "que": 1583,
      "ĠMay": 1584,
      "gin": 1585,
      "ĠCon": 1586,
      "ison": 1587,
      "Ġname": 1588,
      "11": 1589,
      "icle": 1590,
      "Ġ=": 1591,
      "ĠYork": 1592,
      "Ġperform": 1593,
      "There": 1594,
      "ither": 1595,
      "ots": 1596,
      "tem": 1597,
      "Ġword": 1598,
      "ization": 1599,
      "oint": 1600,
      "artment": 1601,
      "Ġseveral": 1602,
      "Ġwr": 1603,
      "Ġwater": 1604,
      "Ġmilit": 1605,
      "Ġpress": 1606,
      "Ġorder": 1607,
      "idd": 1608,
      "Ġprop": 1609,
      "Ġreturn": 1610,
      "br": 1611,
      "Ġearly": 1612,
      "ĠOr": 1613,
      "vert": 1614,
      "ĠAll": 1615,
      "Ġcrit": 1616,
      "Ġappear": 1617,
      "Ġdoing": 1618,
      "Ġwhether": 1619,
      "Ġnight": 1620,
      "Ġmeet": 1621,
      "Ġsocial": 1622,
      "Ġhaving": 1623,
      "aken": 1624,
      "ourn": 1625,
      "Ġtoday": 1626,
      "ially": 1627,
      "iously": 1628,
      "Ġmedia": 1629,
      "ĠPresident": 1630,
      "for": 1631,
      "rop": 1632,
      "Ġwent": 1633,
      "ĠMr": 1634,
      "Ġfive": 1635,
      "iam": 1636,
      "Ġyoung": 1637,
      "Ġseen": 1638,
      "Ġsing": 1639,
      "Ġequ": 1640,
      "ĠAt": 1641,
      "une": 1642,
      "Ġquestion": 1643,
      "idence": 1644,
      "ĠCol": 1645,
      "Ġevent": 1646,
      "ands": 1647,
      "Ġlikely": 1648,
      "Ġshort": 1649,
      "ories": 1650,
      "Ġsex": 1651,
      "Ġcontrol": 1652,
      "ended": 1653,
      "Ġinvol": 1654,
      "Ġside": 1655,
      "Ġhour": 1656,
      "imate": 1657,
      "raft": 1658,
      "Ġalong": 1659,
      "50": 1660,
      "ald": 1661,
      "Ġsure": 1662,
      "ĠState": 1663,
      "Ġant": 1664,
      "eng": 1665,
      "ague": 1666,
      "And": 1667,
      "Ġfight": 1668,
      "Ġcertain": 1669,
      "Ġpot": 1670,
      "ĠStates": 1671,
      "Ġsuccess": 1672,
      "ĠEurope": 1673,
      "Ġcourse": 1674,
      "Ġben": 1675,
      "Ġmonths": 1676,
      "urch": 1677,
      "Ġdone": 1678,
      "ĠCo": 1679,
      "Ġ]": 1680,
      "uff": 1681,
      "ium": 1682,
      "Ġ2016": 1683,
      "Ġocc": 1684,
      "19": 1685,
      "iting": 1686,
      "Ġpossible": 1687,
      "Ġfuture": 1688,
      "ster": 1689,
      "Ġdesc": 1690,
      "ball": 1691,
      "Ġactiv": 1692,
      "ler": 1693,
      "Ġamong": 1694,
      "ential": 1695,
      "Ġvers": 1696,
      "Ġonce": 1697,
      "Ġeng": 1698,
      "Ġmembers": 1699,
      "Ġexample": 1700,
      "sh": 1701,
      "Ġ/": 1702,
      "Ġasked": 1703,
      "ober": 1704,
      "ubl": 1705,
      "let": 1706,
      "ĠSte": 1707,
      "Ġcho": 1708,
      "Ġavail": 1709,
      "gress": 1710,
      "Ġhold": 1711,
      "ortun": 1712,
      "ĠBr": 1713,
      "Ġproblem": 1714,
      "verage": 1715,
      "Ġinvestig": 1716,
      "ivid": 1717,
      "orld": 1718,
      "Ġwithin": 1719,
      "Ġ11": 1720,
      "Ġproduct": 1721,
      "rew": 1722,
      "Ġauthor": 1723,
      "ĠUniversity": 1724,
      "por": 1725,
      "Ġknown": 1726,
      "Ġyet": 1727,
      "Ġlocal": 1728,
      "Ġviol": 1729,
      "Ġpriv": 1730,
      "Ġannoun": 1731,
      "lf": 1732,
      "nect": 1733,
      "ggest": 1734,
      "Ġgiven": 1735,
      "book": 1736,
      "itive": 1737,
      "Ġmakes": 1738,
      "Ġmeans": 1739,
      "Ġunderstand": 1740,
      "Ġfail": 1741,
      "ulation": 1742,
      "You": 1743,
      "ones": 1744,
      "ued": 1745,
      "Ġacross": 1746,
      "ĠNo": 1747,
      "ĠOn": 1748,
      "ensive": 1749,
      "Ġlim": 1750,
      "ĠHouse": 1751,
      "ored": 1752,
      "Ġsuggest": 1753,
      "ĠWhen": 1754,
      "Ġorig": 1755,
      "oci": 1756,
      "Ġthought": 1757,
      "back": 1758,
      "inc": 1759,
      "Ġlight": 1760,
      "Ġstrong": 1761,
      "Ġnon": 1762,
      "af": 1763,
      "Ġprob": 1764,
      "12": 1765,
      "my": 1766,
      "Ġreason": 1767,
      "ederal": 1768,
      "ee": 1769,
      "Ġcommunity": 1770,
      "ĠObama": 1771,
      "Ġ&": 1772,
      "aged": 1773,
      "iety": 1774,
      "Ġsent": 1775,
      "Ġpar": 1776,
      "not": 1777,
      "Ġbelieve": 1778,
      "Ġreported": 1779,
      "Ġclose": 1780,
      "Ġcond": 1781,
      "itions": 1782,
      "ances": 1783,
      "ĠSen": 1784,
      "Ġothers": 1785,
      "Ġcut": 1786,
      "Ġ,": 1787,
      "Ġnet": 1788,
      "orts": 1789,
      "Ġindust": 1790,
      "Ġfollowing": 1791,
      "Ġ2015": 1792,
      "Ġvideo": 1793,
      "Ġsour": 1794,
      "Ġfoc": 1795,
      "Ġstarted": 1796,
      "Ġavailable": 1797,
      "urther": 1798,
      "cher": 1799,
      "ashing": 1800,
      "Ġgetting": 1801,
      "ene": 1802,
      "Ġlove": 1803,
      "ĠEx": 1804,
      "ĠTe": 1805,
      "ĠDemocrat": 1806,
      "ming": 1807,
      "Ġland": 1808,
      "Ġbased": 1809,
      "ĠX": 1810,
      "Ġparty": 1811,
      "ĠChrist": 1812,
      "Ġident": 1813,
      "'ve": 1814,
      "Ġlow": 1815,
      "ĠCent": 1816,
      "Ġcreat": 1817,
      "ert": 1818,
      "Ġ30": 1819,
      "Ġsaf": 1820,
      "aster": 1821,
      "Ġseries": 1822,
      "For": 1823,
      "uly": 1824,
      "Ġnational": 1825,
      "Ġadded": 1826,
      "osp": 1827,
      "Ġdeath": 1828,
      "Ġi": 1829,
      "Ġtrying": 1830,
      "Ġidea": 1831,
      "Ġphot": 1832,
      "30": 1833,
      "Ã©": 1834,
      ".,": 1835,
      "Ġmus": 1836,
      "ief": 1837,
      "Ġaccount": 1838,
      "Ġissue": 1839,
      "Ġmom": 1840,
      "iron": 1841,
      "ĠMin": 1842,
      "Ġago": 1843,
      "Ġhig": 1844,
      "selves": 1845,
      "Ġaccess": 1846,
      "ĠCanad": 1847,
      "Ġcomes": 1848,
      "Ġlooking": 1849,
      "Ġexperience": 1850,
      "reed": 1851,
      "resent": 1852,
      "ails": 1853,
      "Ġhistory": 1854,
      "ream": 1855,
      "Ġemploy": 1856,
      "âĢĵ": 1857,
      "ograp": 1858,
      "Ġtoget": 1859,
      "Ġtogether": 1860,
      "Ġalmost": 1861,
      "eb": 1862,
      "witter": 1863,
      "Ġclear": 1864,
      "ĠWhat": 1865,
      "use": 1866,
      "pro": 1867,
      "ote": 1868,
      "ged": 1869,
      "Ġsix": 1870,
      "rict": 1871,
      "Ġcommit": 1872,
      "arr": 1873,
      "Ġisn": 1874,
      "ĠPol": 1875,
      "lling": 1876,
      "Ġanal": 1877,
      "ability": 1878,
      "Ġanything": 1879,
      "Ġimpro": 1880,
      "ividual": 1881,
      "att": 1882,
      "ators": 1883,
      "itional": 1884,
      "Ġprot": 1885,
      "though": 1886,
      "Ġlive": 1887,
      "utes": 1888,
      "Ġrul": 1889,
      "ilar": 1890,
      "aid": 1891,
      "What": 1892,
      "minist": 1893,
      "Ġris": 1894,
      "Ġ16": 1895,
      "rug": 1896,
      "ĠFl": 1897,
      "ination": 1898,
      "ĠAmerica": 1899,
      "erence": 1900,
      "wards": 1901,
      "Ġhit": 1902,
      "ien": 1903,
      "----": 1904,
      "Ġca": 1905,
      "ĠGr": 1906,
      "ustom": 1907,
      "ĠComm": 1908,
      "Ġcomplete": 1909,
      "Ġpract": 1910,
      "unch": 1911,
      "Ġtrad": 1912,
      "Ġ#": 1913,
      "Ġhalf": 1914,
      "AT": 1915,
      "Ġcompet": 1916,
      "ĠPr": 1917,
      "Ġmilitary": 1918,
      "Ġsaying": 1919,
      "Ġmiss": 1920,
      "Ġarea": 1921,
      "Ġvict": 1922,
      "Ġ2014": 1923,
      "An": 1924,
      "ĠOne": 1925,
      "ĠAm": 1926,
      "'m": 1927,
      "cially": 1928,
      "ai": 1929,
      "Ġcourt": 1930,
      "ĠBro": 1931,
      "Ġ:": 1932,
      "ocu": 1933,
      "Ġmor": 1934,
      "Ġbad": 1935,
      "aper": 1936,
      "ĠSec": 1937,
      "tempt": 1938,
      "Ġbill": 1939,
      "Ġproper": 1940,
      "Ġdiscuss": 1941,
      "15": 1942,
      "inton": 1943,
      "Ġsecurity": 1944,
      "Ġnear": 1945,
      "Ġtaken": 1946,
      "erman": 1947,
      "Ġconcern": 1948,
      "Ġer": 1949,
      "Ġthreat": 1950,
      "Ġsw": 1951,
      "rote": 1952,
      "lement": 1953,
      "Ġpresent": 1954,
      "uge": 1955,
      "Ġindividual": 1956,
      "Ġbehind": 1957,
      "Ġfav": 1958,
      "Ġmult": 1959,
      "ĠNorth": 1960,
      "yn": 1961,
      "ĠAust": 1962,
      "cer": 1963,
      "Ġentire": 1964,
      "Ġservice": 1965,
      "Ġstudy": 1966,
      "Ġpolicy": 1967,
      "Ġsal": 1968,
      "Ġfilm": 1969,
      "raw": 1970,
      "ev": 1971,
      "Ġcomb": 1972,
      "arter": 1973,
      "irc": 1974,
      "Ġsum": 1975,
      "Ġfall": 1976,
      "Ġbring": 1977,
      "Ġtry": 1978,
      "Ġquick": 1979,
      "Ġtot": 1980,
      "Ġpubl": 1981,
      "ĠBrit": 1982,
      "Ġrather": 1983,
      "arm": 1984,
      "Ġplayer": 1985,
      "Ġtaking": 1986,
      "ĠTo": 1987,
      "Ġcompan": 1988,
      "On": 1989,
      "Ġface": 1990,
      "atic": 1991,
      "Ġz": 1992,
      "Ġspace": 1993,
      "ify": 1994,
      "off": 1995,
      "ĠEng": 1996,
      "ĠCal": 1997,
      "ĠWorld": 1998,
      "sw": 1999,
      "Ġcult": 2000,
      "Ġmess": 2001,
      "RE": 2002,
      "Ġblack": 2003,
      "Ġfront": 2004,
      "ĠAf": 2005,
      "Ġsingle": 2006,
      "Ġcoun": 2007,
      "oll": 2008,
      "ĠWar": 2009,
      "Ġsomeone": 2010,
      "sy": 2011,
      "ids": 2012,
      "play": 2013,
      "par": 2014,
      "Ġ14": 2015,
      "Ġpoints": 2016,
      "Ġredu": 2017,
      "Ġfoot": 2018,
      "Ġcompl": 2019,
      "ĠMan": 2020,
      "Ġspecial": 2021,
      "ĠDep": 2022,
      "ĠDon": 2023,
      "ply": 2024,
      "When": 2025,
      "ĠNational": 2026,
      "go": 2027,
      "Ġattempt": 2028,
      "Ġjo": 2029,
      "Ġsignific": 2030,
      "oon": 2031,
      "Ġwrote": 2032,
      "Ġfeat": 2033,
      "rael": 2034,
      "Ġdecision": 2035,
      "Ġrights": 2036,
      "Ġlearn": 2037,
      "Ġhowever": 2038,
      "ĠCity": 2039,
      "Ġ...": 2040,
      "irl": 2041,
      "Ġkey": 2042,
      "Ad": 2043,
      "Ġcou": 2044,
      "Ġmind": 2045,
      "ches": 2046,
      "Ġelse": 2047,
      "Ġpret": 2048,
      "Ġsus": 2049,
      "Ġcoming": 2050,
      "Ġwanted": 2051,
      "IN": 2052,
      "ãģ": 2053,
      "cing": 2054,
      "reme": 2055,
      "Ġprobably": 2056,
      "ashington": 2057,
      "Ġstudents": 2058,
      "Ġdescrib": 2059,
      "amed": 2060,
      "Ġbenef": 2061,
      "Ġresearch": 2062,
      "16": 2063,
      "Ġeither": 2064,
      ".)": 2065,
      "ows": 2066,
      "Ġconv": 2067,
      "//": 2068,
      "ively": 2069,
      "icult": 2070,
      "ully": 2071,
      "nes": 2072,
      "aces": 2073,
      "Ġconnect": 2074,
      "That": 2075,
      "over": 2076,
      "pping": 2077,
      "Ġcand": 2078,
      "Ġbody": 2079,
      "Ġimm": 2080,
      "Ġhouse": 2081,
      "ĠIm": 2082,
      "Ġissues": 2083,
      "ran": 2084,
      "ĠJan": 2085,
      "ĠClinton": 2086,
      "Ġargu": 2087,
      "Ġcompanies": 2088,
      "Ġfood": 2089,
      "ttp": 2090,
      "Ġmass": 2091,
      "Ġnothing": 2092,
      "Ġfig": 2093,
      "olution": 2094,
      "Ġtarg": 2095,
      "Ġey": 2096,
      "Ġenc": 2097,
      "Ġwa": 2098,
      "ried": 2099,
      "asing": 2100,
      "Ġsuper": 2101,
      "viron": 2102,
      "elt": 2103,
      "Ġleaders": 2104,
      "ently": 2105,
      "Ġsimilar": 2106,
      "14": 2107,
      "ault": 2108,
      "Ġrole": 2109,
      "Ġfinal": 2110,
      "ĠDav": 2111,
      "Ġprotect": 2112,
      "aut": 2113,
      "Ġfurther": 2114,
      "ivil": 2115,
      "mb": 2116,
      "Ġ2013": 2117,
      "Ġtem": 2118,
      "umb": 2119,
      "Ġchall": 2120,
      "Ġ17": 2121,
      "Ġcharacter": 2122,
      "Ġofficials": 2123,
      "Ġrelations": 2124,
      "pecially": 2125,
      "rodu": 2126,
      "Ġmeas": 2127,
      "Ġdue": 2128,
      "Ġ2017": 2129,
      "Ġexist": 2130,
      "Ġroom": 2131,
      "Ġreleased": 2132,
      "pite": 2133,
      "Ġrepl": 2134,
      "Ġdocu": 2135,
      "Ġfire": 2136,
      "Ġstep": 2137,
      "Ġ13": 2138,
      "Ġthird": 2139,
      "Ġbegin": 2140,
      "Ġfield": 2141,
      "ĠÂ": 2142,
      "Ġcustom": 2143,
      "ibility": 2144,
      "Ġseems": 2145,
      "Ġprovide": 2146,
      "iday": 2147,
      "ades": 2148,
      "Ġwhole": 2149,
      "Ġstates": 2150,
      "Ch": 2151,
      "ĠWith": 2152,
      "Ġstop": 2153,
      "Ġbegan": 2154,
      "ĠSu": 2155,
      "Ġdam": 2156,
      "Ġpick": 2157,
      "Ġwatch": 2158,
      "Ġstri": 2159,
      "Ġtra": 2160,
      "angu": 2161,
      "ĠWashington": 2162,
      "Ġoutside": 2163,
      "eal": 2164,
      "ĠEd": 2165,
      "ring": 2166,
      "Ġexec": 2167,
      "ON": 2168,
      "acebook": 2169,
      "Ġinit": 2170,
      "ĠIntern": 2171,
      "ĠAss": 2172,
      "Ġeverything": 2173,
      "Ġtre": 2174,
      "head": 2175,
      "ĠApp": 2176,
      "Ġ2012": 2177,
      "Ġ100": 2178,
      "aced": 2179,
      "uation": 2180,
      "Ġhours": 2181,
      "Ġinterview": 2182,
      "Ġgroups": 2183,
      "Ġinfl": 2184,
      "stit": 2185,
      "So": 2186,
      "IS": 2187,
      "Ġlab": 2188,
      "ournal": 2189,
      "ĠHowever": 2190,
      "like": 2191,
      "Ġcreate": 2192,
      "Ġsignificant": 2193,
      "Ġbreak": 2194,
      "aul": 2195,
      "Ġbecame": 2196,
      "Ġcountries": 2197,
      "Ġneg": 2198,
      "Ġdrug": 2199,
      "Ġamount": 2200,
      "Ġsound": 2201,
      "Ġstatement": 2202,
      "amer": 2203,
      "Ġopt": 2204,
      "Ġabove": 2205,
      "ung": 2206,
      "arth": 2207,
      "ograph": 2208,
      "13": 2209,
      "ape": 2210,
      "://": 2211,
      "attle": 2212,
      "Ġfederal": 2213,
      "Ġmatter": 2214,
      "Ġprofess": 2215,
      "ĠIsrael": 2216,
      "ĠSouth": 2217,
      "Ġoffice": 2218,
      "Ġhimself": 2219,
      "Ġcontinue": 2220,
      "arlier": 2221,
      "AN": 2222,
      "ana": 2223,
      "Ġaction": 2224,
      "Ġadminist": 2225,
      "Ġ198": 2226,
      "ĠGe": 2227,
      "ery": 2228,
      "Ġdevelopment": 2229,
      "ĠGu": 2230,
      "Ġthemselves": 2231,
      "now": 2232,
      "ris": 2233,
      "Ġself": 2234,
      "Ġitself": 2235,
      "Ġtrue": 2236,
      "right": 2237,
      "ilt": 2238,
      "Ġstat": 2239,
      "iod": 2240,
      "ĠPart": 2241,
      "Ġposition": 2242,
      "eks": 2243,
      "lim": 2244,
      "anks": 2245,
      "Ġcop": 2246,
      "**": 2247,
      "Ġaddress": 2248,
      "obal": 2249,
      "Ġspecific": 2250,
      "ogle": 2251,
      "Ġdom": 2252,
      "Ġdou": 2253,
      "Ġphys": 2254,
      "Ġlarg": 2255,
      "ĠRes": 2256,
      "ili": 2257,
      "ender": 2258,
      "ribut": 2259,
      "ÂŃ": 2260,
      "oid": 2261,
      "sec": 2262,
      "iddle": 2263,
      "Ġrepresent": 2264,
      "Ġshows": 2265,
      "Ġwoman": 2266,
      "Ġsimply": 2267,
      "Ġ25": 2268,
      "Ġevidence": 2269,
      "Ġener": 2270,
      "Ġinclude": 2271,
      "Ġrespons": 2272,
      "Ġmot": 2273,
      "Ġplayed": 2274,
      "Ġcandid": 2275,
      "BC": 2276,
      "ĠJust": 2277,
      "ask": 2278,
      "Ġground": 2279,
      "abl": 2280,
      "'ll": 2281,
      "ĠSyri": 2282,
      "tee": 2283,
      "ĠEn": 2284,
      "ĠOct": 2285,
      "Ġindustry": 2286,
      "Ġwasn": 2287,
      "Ġjud": 2288,
      "vironment": 2289,
      "Ġneeds": 2290,
      "Ġtreat": 2291,
      "ift": 2292,
      "Ġdeep": 2293,
      "Ġalleg": 2294,
      "Ġrunning": 2295,
      "Ġversion": 2296,
      "Ġagree": 2297,
      "AR": 2298,
      "17": 2299,
      "Ġtyp": 2300,
      "atur": 2301,
      "Ġdifficult": 2302,
      "Ġblock": 2303,
      "Ġbelow": 2304,
      "ĠÐ": 2305,
      "Ġgeneral": 2306,
      "Ġpretty": 2307,
      "Ġmag": 2308,
      "reg": 2309,
      "omm": 2310,
      "Ġrelease": 2311,
      "Ġbuilding": 2312,
      "bo": 2313,
      "Ġplaying": 2314,
      "Ġneeded": 2315,
      "ogn": 2316,
      "Ġexc": 2317,
      "Ġap": 2318,
      "Ġhost": 2319,
      "Ġep": 2320,
      "Ġbillion": 2321,
      "ww": 2322,
      "ĠBar": 2323,
      "Ġlegal": 2324,
      "Ġonline": 2325,
      "Ġabs": 2326,
      "Ġinj": 2327,
      "lam": 2328,
      "ned": 2329,
      "Ġred": 2330,
      "Ġlate": 2331,
      "ĠChina": 2332,
      "Ġfriends": 2333,
      "Ġpain": 2334,
      "Ġdest": 2335,
      "Ġgen": 2336,
      "ĠHis": 2337,
      "medi": 2338,
      "Ġmusic": 2339,
      "ĠSep": 2340,
      "Ġhom": 2341,
      "ĠAb": 2342,
      "Ġweeks": 2343,
      "Ġsense": 2344,
      "Ġespecially": 2345,
      "ĠTwitter": 2346,
      "Ġquite": 2347,
      "How": 2348,
      "Ġanim": 2349,
      "Ġsaw": 2350,
      "18": 2351,
      "Ġrecently": 2352,
      "Ġdeter": 2353,
      "ccording": 2354,
      "ager": 2355,
      "Ġ|": 2356,
      "Ġ50": 2357,
      "Ġwhite": 2358,
      "ĠNews": 2359,
      "ĠMed": 2360,
      "Ġrad": 2361,
      "Ġforward": 2362,
      "Ġeveryone": 2363,
      "lev": 2364,
      "where": 2365,
      "Ġelection": 2366,
      "Ġgun": 2367,
      "oph": 2368,
      "Ġcommon": 2369,
      "Ġvote": 2370,
      "Ġdi": 2371,
      "epend": 2372,
      "Ġservices": 2373,
      "AS": 2374,
      "....": 2375,
      "ĠAfter": 2376,
      "ĠWhite": 2377,
      "Ġeduc": 2378,
      "time": 2379,
      "Ġopportun": 2380,
      "Ġball": 2381,
      "Ġcharg": 2382,
      "Ġlost": 2383,
      "Ġchanges": 2384,
      "Ġfocus": 2385,
      "Ġtechnology": 2386,
      "Ġsold": 2387,
      "ique": 2388,
      "osing": 2389,
      "Ġperiod": 2390,
      "Ġaccept": 2391,
      "onse": 2392,
      "che": 2393,
      "ĠGerman": 2394,
      "oring": 2395,
      "Ġbar": 2396,
      "ival": 2397,
      "Ġsoon": 2398,
      "Ġenergy": 2399,
      "Ġsuff": 2400,
      "ĠRepublican": 2401,
      "Ġeconomic": 2402,
      "Ġple": 2403,
      "Ġparent": 2404,
      "Ġlonger": 2405,
      "hod": 2406,
      "Ġcontract": 2407,
      "Ġsite": 2408,
      "ĠAustral": 2409,
      "____": 2410,
      "oke": 2411,
      "Ġpred": 2412,
      "me": 2413,
      "Ġled": 2414,
      "Ġtrack": 2415,
      "ĠCong": 2416,
      "ĠWest": 2417,
      "Ġtit": 2418,
      "Ġheld": 2419,
      "ĠHar": 2420,
      "Ġupd": 2421,
      "irm": 2422,
      "Ġinstead": 2423,
      "ĠWill": 2424,
      "uary": 2425,
      "istic": 2426,
      "Ġ)": 2427,
      "Ġlo": 2428,
      "Ġrelig": 2429,
      "Ġhope": 2430,
      "Ġcirc": 2431,
      "ĠMus": 2432,
      "ights": 2433,
      "den": 2434,
      "isc": 2435,
      "Ġcred": 2436,
      "Ġresults": 2437,
      "Ġlangu": 2438,
      "Ġwrong": 2439,
      "Ġstay": 2440,
      "Ġdecl": 2441,
      "Ġpersonal": 2442,
      "Ġgoal": 2443,
      "icro": 2444,
      "cil": 2445,
      "ĠMarch": 2446,
      "Ġshare": 2447,
      "ĠDepartment": 2448,
      "Ġconsum": 2449,
      "ament": 2450,
      "Ġ24": 2451,
      "irt": 2452,
      "ole": 2453,
      "Ġreve": 2454,
      "key": 2455,
      "ached": 2456,
      "Ġrisk": 2457,
      "Ġexpress": 2458,
      "Ġshoot": 2459,
      "Ġobject": 2460,
      "Ġcheck": 2461,
      "ule": 2462,
      "Ġmoment": 2463,
      "ĠRussia": 2464,
      "duct": 2465,
      "Ġvalue": 2466,
      "ĠAug": 2467,
      "Ġconsider": 2468,
      "Ġworks": 2469,
      "25": 2470,
      "ularly": 2471,
      "Ġpie": 2472,
      "Ġce": 2473,
      "Ġvol": 2474,
      "ript": 2475,
      "ĠCar": 2476,
      "They": 2477,
      "Ġhy": 2478,
      "yle": 2479,
      "iding": 2480,
      "fect": 2481,
      "Ġapplic": 2482,
      "Ġstaff": 2483,
      "Ġpotential": 2484,
      "Ġlaws": 2485,
      "Ġnecess": 2486,
      "ners": 2487,
      "Ġansw": 2488,
      "Ġtotal": 2489,
      "Ġanti": 2490,
      "Ġprim": 2491,
      "overed": 2492,
      "Ġannounced": 2493,
      "Ġhigher": 2494,
      "ham": 2495,
      "Ġmat": 2496,
      "ĠMy": 2497,
      "ĠMich": 2498,
      "Ġdead": 2499,
      "Ġsubject": 2500,
      "Ġsen": 2501,
      "ĠDr": 2502,
      "pril": 2503,
      "ech": 2504,
      "ĠJuly": 2505,
      "aging": 2506,
      "Ġstru": 2507,
      "Al": 2508,
      "anger": 2509,
      "Ġarticle": 2510,
      "bit": 2511,
      "ĠThese": 2512,
      "lege": 2513,
      "asons": 2514,
      "Ġwind": 2515,
      "Ġrespect": 2516,
      "oe": 2517,
      "onday": 2518,
      "Ġtal": 2519,
      "Ġcomput": 2520,
      "haps": 2521,
      "Ġrev": 2522,
      "Ġfinan": 2523,
      "Ph": 2524,
      "ĠRed": 2525,
      "ĠFacebook": 2526,
      "Ġwords": 2527,
      "ĠJune": 2528,
      "Ġanyone": 2529,
      "ij": 2530,
      "Ġearlier": 2531,
      "fer": 2532,
      "put": 2533,
      "Ġbase": 2534,
      "Ġcomment": 2535,
      "Ġpopular": 2536,
      "ilities": 2537,
      "Ġage": 2538,
      "ĠPe": 2539,
      "Ġkilled": 2540,
      "Ġcreated": 2541,
      "ĠCongress": 2542,
      "reet": 2543,
      "ĠNe": 2544,
      "Ġ2011": 2545,
      "Ġsurpr": 2546,
      "Ġreceived": 2547,
      "ude": 2548,
      "Ġprivate": 2549,
      "ients": 2550,
      "Ġwebs": 2551,
      "Ġways": 2552,
      "Ġresponse": 2553,
      "Ġproblems": 2554,
      "Ġexpected": 2555,
      "Ġeasy": 2556,
      "ills": 2557,
      "ĠNot": 2558,
      "okes": 2559,
      "cast": 2560,
      "lt": 2561,
      "Ġscient": 2562,
      "ĠPal": 2563,
      "val": 2564,
      "oto": 2565,
      "Ġcapt": 2566,
      "ends": 2567,
      "Ġreview": 2568,
      "Ġcivil": 2569,
      "eter": 2570,
      "Ġwalk": 2571,
      "Ġfunction": 2572,
      "Ġbroad": 2573,
      "aterial": 2574,
      "mp": 2575,
      "Ġshot": 2576,
      "Ġmother": 2577,
      "Ġdiv": 2578,
      "Ġinvolved": 2579,
      "ams": 2580,
      "hern": 2581,
      "Ġexecut": 2582,
      "action": 2583,
      "Ġaud": 2584,
      "Ġminutes": 2585,
      "ĠSm": 2586,
      "Ġtarget": 2587,
      "iple": 2588,
      "ĠGod": 2589,
      "ourt": 2590,
      "ĠMonday": 2591,
      "Ġincrease": 2592,
      "aving": 2593,
      "Ġrate": 2594,
      "ember": 2595,
      "Ġoil": 2596,
      "Ġpur": 2597,
      "Ġden": 2598,
      "Ġquestions": 2599,
      "Ġport": 2600,
      "hel": 2601,
      "ateg": 2602,
      "ires": 2603,
      "atural": 2604,
      "Ġrespond": 2605,
      "isl": 2606,
      "Ġimpact": 2607,
      "Ġnearly": 2608,
      "Ġ197": 2609,
      "Ġinside": 2610,
      "Ġterror": 2611,
      "ĠGoogle": 2612,
      "Ġfavor": 2613,
      "Ġenvironment": 2614,
      "ctor": 2615,
      "ĠMe": 2616,
      "apan": 2617,
      "uesday": 2618,
      "llig": 2619,
      "Ġclub": 2620,
      "itiz": 2621,
      "cle": 2622,
      "Ġcode": 2623,
      "Ġpack": 2624,
      "ĠFriday": 2625,
      "ples": 2626,
      "ĠApril": 2627,
      "Ġcases": 2628,
      "At": 2629,
      "Ġrelationship": 2630,
      "Ġnation": 2631,
      "ES": 2632,
      "hood": 2633,
      "uel": 2634,
      "ĠSan": 2635,
      "60": 2636,
      "Ġinternational": 2637,
      "Ġfans": 2638,
      "Ġspeak": 2639,
      "To": 2640,
      "Ġdirector": 2641,
      "rel": 2642,
      "Ġcannot": 2643,
      "Ġaverage": 2644,
      "Ġforce": 2645,
      "onst": 2646,
      "Ġur": 2647,
      "lled": 2648,
      "Ġleave": 2649,
      "Ġfem": 2650,
      "Ġbecom": 2651,
      "Ġreports": 2652,
      "rain": 2653,
      "Ġability": 2654,
      "Ġphone": 2655,
      "Ġpublished": 2656,
      "Ġoriginal": 2657,
      "Ġoffer": 2658,
      "vertise": 2659,
      "ging": 2660,
      "ĠCount": 2661,
      "Ġheart": 2662,
      "rought": 2663,
      "][": 2664,
      "Ġexact": 2665,
      "EN": 2666,
      "Ġworked": 2667,
      "Ġmodel": 2668,
      "ips": 2669,
      "Ġgave": 2670,
      "Ġcurrently": 2671,
      "ĠCalif": 2672,
      "Ġsoft": 2673,
      "atives": 2674,
      "ĠDo": 2675,
      "Ġchance": 2676,
      "Ġworth": 2677,
      "bor": 2678,
      "Ġevents": 2679,
      "ĠSch": 2680,
      "Ġgirl": 2681,
      "Ġimmedi": 2682,
      "Ġrequest": 2683,
      "Ġsource": 2684,
      "Ġestabl": 2685,
      "ĠTuesday": 2686,
      "Ġterms": 2687,
      "Ġliving": 2688,
      "na": 2689,
      "ought": 2690,
      "Ġwhose": 2691,
      "Ġroad": 2692,
      "osition": 2693,
      "Ġplans": 2694,
      "ĠWhile": 2695,
      "joy": 2696,
      "Ġ2010": 2697,
      "ino": 2698,
      "ites": 2699,
      "Ġcoll": 2700,
      "tember": 2701,
      "Ġmember": 2702,
      "ovember": 2703,
      "Ġcontent": 2704,
      "Ġlack": 2705,
      "Ġusers": 2706,
      "omb": 2707,
      "ĠJanuary": 2708,
      "Ġdecided": 2709,
      "Ġlat": 2710,
      "Ġrequire": 2711,
      "ological": 2712,
      "unt": 2713,
      "body": 2714,
      "Ġdefin": 2715,
      "Ġarrest": 2716,
      "Ġbuy": 2717,
      "Ġglobal": 2718,
      "Ġprice": 2719,
      "ops": 2720,
      "Ġlives": 2721,
      "OR": 2722,
      "uth": 2723,
      "lex": 2724,
      "Ġteams": 2725,
      "Ġpict": 2726,
      "ĠSome": 2727,
      "ĠWed": 2728,
      "ĠDavid": 2729,
      "Ġassoci": 2730,
      "Ġtou": 2731,
      "ĠEl": 2732,
      "izing": 2733,
      "Ġmeeting": 2734,
      "Ġnetwork": 2735,
      "Ġemer": 2736,
      "ky": 2737,
      "Ġmid": 2738,
      "ĠAmericans": 2739,
      "Ġinflu": 2740,
      "ĠFeb": 2741,
      "Ġhappened": 2742,
      "oved": 2743,
      "icated": 2744,
      "ĠCanada": 2745,
      "ĠAct": 2746,
      "ises": 2747,
      "Ġmaterial": 2748,
      "Ġet": 2749,
      "Ġboard": 2750,
      "Ġtakes": 2751,
      "orters": 2752,
      "Ġapproach": 2753,
      "Ġsituation": 2754,
      "Ġtype": 2755,
      "nesday": 2756,
      "ĠRussian": 2757,
      "ĠPer": 2758,
      "usion": 2759,
      "Ġweap": 2760,
      "ĠSund": 2761,
      "Ġgoes": 2762,
      "ĠCor": 2763,
      "\".": 2764,
      "Ġaffect": 2765,
      "oor": 2766,
      "Ġspent": 2767,
      "fully": 2768,
      "ael": 2769,
      "Ġfinancial": 2770,
      "aur": 2771,
      "Ġobs": 2772,
      "Ġvia": 2773,
      "Ġ40": 2774,
      "ĠOctober": 2775,
      "illed": 2776,
      "ĠGl": 2777,
      "Ġturned": 2778,
      "Ġfre": 2779,
      "Ġforeign": 2780,
      "ĠBy": 2781,
      "ursday": 2782,
      "Ġhuge": 2783,
      "Ġregard": 2784,
      "Ġintrodu": 2785,
      "Ġcollect": 2786,
      "Ġrace": 2787,
      "Ġcal": 2788,
      "load": 2789,
      "ĠJapan": 2790,
      "ray": 2791,
      "Ġdig": 2792,
      "Ġste": 2793,
      "Ġcy": 2794,
      "Ġmethod": 2795,
      "Ġareas": 2796,
      "Ġsimple": 2797,
      "Ġstore": 2798,
      "ĠTV": 2799,
      "iment": 2800,
      "ĠNovember": 2801,
      "Ġnumbers": 2802,
      "order": 2803,
      "Ġcareer": 2804,
      "40": 2805,
      "Ġcouple": 2806,
      "Ġadministration": 2807,
      "based": 2808,
      "Ġcapital": 2809,
      "One": 2810,
      "ctions": 2811,
      "rown": 2812,
      "ornia": 2813,
      "estern": 2814,
      "ĠSeptember": 2815,
      "ĠEuropean": 2816,
      "ese": 2817,
      "ĠAugust": 2818,
      "ĠIslam": 2819,
      "Ġ@": 2820,
      "Ġemail": 2821,
      "Ġtrade": 2822,
      "200": 2823,
      "ĠNow": 2824,
      "ession": 2825,
      "Ġvictim": 2826,
      "ĠGeor": 2827,
      "Ġbi": 2828,
      "Ġquickly": 2829,
      "Ġimprove": 2830,
      "Ġround": 2831,
      "ĠOff": 2832,
      "ani": 2833,
      "Ġboy": 2834,
      "Ġmatch": 2835,
      "ĠRom": 2836,
      "Ġbur": 2837,
      "Ġperformance": 2838,
      "ĠWednesday": 2839,
      "Ġ21": 2840,
      "âĢĿ.": 2841,
      "Ġarri": 2842,
      "Ġfather": 2843,
      "ĠAng": 2844,
      "field": 2845,
      "gest": 2846,
      "Ġeconomy": 2847,
      "Ġtool": 2848,
      "Ġ{": 2849,
      "aily": 2850,
      "bl": 2851,
      "Ġengine": 2852,
      "Ġworkers": 2853,
      "ED": 2854,
      "Ġcell": 2855,
      "ĠCourt": 2856,
      "Ġprep": 2857,
      "Ġpull": 2858,
      "chie": 2859,
      "Ġsecret": 2860,
      "Ġord": 2861,
      "ishing": 2862,
      "ruction": 2863,
      "Ġ+": 2864,
      "ĠThursday": 2865,
      "Ġhon": 2866,
      "Ġproduction": 2867,
      "cember": 2868,
      "Ġneigh": 2869,
      "ety": 2870,
      "Ġcover": 2871,
      "Ġlog": 2872,
      "Ġloss": 2873,
      "mon": 2874,
      "Ġpers": 2875,
      "Ġliber": 2876,
      "Ġrecogn": 2877,
      "Ġhands": 2878,
      "Ġthous": 2879,
      "Ġforces": 2880,
      "Ġreveal": 2881,
      "?âĢĿ": 2882,
      "ĠPaul": 2883,
      "Ġwants": 2884,
      "Ġallowed": 2885,
      "Ġill": 2886,
      "Ġmis": 2887,
      "ĠSunday": 2888,
      "ze": 2889,
      "Ġnorm": 2890,
      "ĠAfric": 2891,
      "Ġtravel": 2892,
      "ructure": 2893,
      "Ġincluded": 2894,
      "uses": 2895,
      "Ġsong": 2896,
      "ĠÃ": 2897,
      "Sh": 2898,
      "atory": 2899,
      "Ġenjoy": 2900,
      "Ġvisit": 2901,
      "chers": 2902,
      "Ġfelt": 2903,
      "ĠAg": 2904,
      "ĠBritish": 2905,
      "Ġpage": 2906,
      "agement": 2907,
      "ĠCalifornia": 2908,
      "Ġparticip": 2909,
      "apt": 2910,
      "Ġperfect": 2911,
      "ume": 2912,
      "Ġlower": 2913,
      "Ġheard": 2914,
      "hold": 2915,
      "Ġlegisl": 2916,
      "down": 2917,
      "With": 2918,
      "ĠSw": 2919,
      "While": 2920,
      "Ġbank": 2921,
      "Ġtown": 2922,
      "ĠHill": 2923,
      "Ġknew": 2924,
      "Ġlooks": 2925,
      "Ġprevious": 2926,
      "iers": 2927,
      "face": 2928,
      "Ġwide": 2929,
      "erc": 2930,
      "Ġsens": 2931,
      "Ġvarious": 2932,
      "Ġprogress": 2933,
      "Ġbrought": 2934,
      "Ġmovement": 2935,
      "\",": 2936,
      "ences": 2937,
      "ened": 2938,
      "Ġattention": 2939,
      "ĠIndia": 2940,
      "Ġbuilt": 2941,
      "ero": 2942,
      "Ġinn": 2943,
      "omp": 2944,
      "Ġreach": 2945,
      "imin": 2946,
      "Re": 2947,
      "Ġwebsite": 2948,
      "After": 2949,
      "Ġrepe": 2950,
      "Ġrules": 2951,
      "Ġfear": 2952,
      "Ġens": 2953,
      "AL": 2954,
      "arily": 2955,
      "Ġmorning": 2956,
      "Ġgets": 2957,
      "ceed": 2958,
      "Ġvo": 2959,
      "Ġtried": 2960,
      "ĠKore": 2961,
      "fl": 2962,
      "Ġsqu": 2963,
      "ĠSenate": 2964,
      "oud": 2965,
      "Ġsn": 2966,
      "ees": 2967,
      "eed": 2968,
      "Ġbud": 2969,
      "ospital": 2970,
      "ĠDecember": 2971,
      "AC": 2972,
      "Ġ22": 2973,
      "idered": 2974,
      "Ġtext": 2975,
      "Ġleader": 2976,
      "come": 2977,
      "ibly": 2978,
      "ĠBlack": 2979,
      "rect": 2980,
      "Ġsepar": 2981,
      "inks": 2982,
      "Ġveh": 2983,
      "alled": 2984,
      "Ġindepend": 2985,
      "ille": 2986,
      "raz": 2987,
      "Ġjournal": 2988,
      "ĠUK": 2989,
      "avy": 2990,
      "Ġlanguage": 2991,
      "force": 2992,
      "lls": 2993,
      "Ġtraining": 2994,
      "uk": 2995,
      "Ġlink": 2996,
      "ĠPost": 2997,
      "Ġcause": 2998,
      "ining": 2999,
      "ibr": 3000,
      "yond": 3001,
      "Ġpopulation": 3002,
      "Ġcritic": 3003,
      "ps": 3004,
      "undred": 3005,
      "ecause": 3006,
      "Ġpaper": 3007,
      "ĠJew": 3008,
      "Ġson": 3009,
      "Ġaddition": 3010,
      "Ġlatest": 3011,
      "aries": 3012,
      "idents": 3013,
      "Ġparticular": 3014,
      "ĠPar": 3015,
      "ground": 3016,
      "ĠTimes": 3017,
      "Ġbehav": 3018,
      "ĠPark": 3019,
      "Ġhor": 3020,
      "ondon": 3021,
      "Ġparents": 3022,
      "Ġfair": 3023,
      "set": 3024,
      "urd": 3025,
      "Ġ23": 3026,
      "ification": 3027,
      "ĠStreet": 3028,
      "Ġmention": 3029,
      "Ġess": 3030,
      "Ġfeatures": 3031,
      "ĠIS": 3032,
      "Ġrac": 3033,
      "icles": 3034,
      "aker": 3035,
      "Ġhttp": 3036,
      "Ġseven": 3037,
      "sych": 3038,
      "imately": 3039,
      "sequ": 3040,
      "Ġreb": 3041,
      "Ġsearch": 3042,
      "Ġstrugg": 3043,
      "'d": 3044,
      "ges": 3045,
      "Ġsort": 3046,
      "Ġclimate": 3047,
      "Ġregul": 3048,
      "alt": 3049,
      "Ġcontact": 3050,
      "ledge": 3051,
      "ĠCounty": 3052,
      "Ð°": 3053,
      "Ġimage": 3054,
      "Ġpaid": 3055,
      "Ġdocument": 3056,
      "Ġspeed": 3057,
      "99": 3058,
      "ening": 3059,
      "aturday": 3060,
      "ĠCont": 3061,
      "Ġspokes": 3062,
      "ĠIran": 3063,
      "Ġconsidered": 3064,
      "vent": 3065,
      "Ġjobs": 3066,
      "iction": 3067,
      "cies": 3068,
      "Ġachie": 3069,
      "ope": 3070,
      "Ġmodern": 3071,
      "Ġtalking": 3072,
      "idge": 3073,
      "vertisement": 3074,
      "Ġdemand": 3075,
      "ĠKing": 3076,
      "lligence": 3077,
      "Ġhot": 3078,
      "ĠEast": 3079,
      "Ġprevent": 3080,
      "iant": 3081,
      "ruary": 3082,
      "Ġinvestigation": 3083,
      "Ġ<": 3084,
      "Ġwond": 3085,
      "asc": 3086,
      "ha": 3087,
      "istan": 3088,
      "Ġsexual": 3089,
      "eared": 3090,
      ");": 3091,
      "Ġcard": 3092,
      "Ġincreasing": 3093,
      "wo": 3094,
      "OS": 3095,
      "het": 3096,
      "Ġeffort": 3097,
      "eth": 3098,
      "ĠKe": 3099,
      "Ġseek": 3100,
      "ĠQu": 3101,
      "Ġhear": 3102,
      "aves": 3103,
      "de": 3104,
      "Ġbiggest": 3105,
      "Ġmedical": 3106,
      "ication": 3107,
      "Tr": 3108,
      "ĠPat": 3109,
      "Ð¾": 3110,
      "Ġgrowth": 3111,
      "Ġcitiz": 3112,
      "ico": 3113,
      "Ġfast": 3114,
      "unk": 3115,
      "ĠCenter": 3116,
      "She": 3117,
      "ĠParty": 3118,
      "Ġopportunity": 3119,
      "Ġconduct": 3120,
      "Ġsystems": 3121,
      "Ġsurve": 3122,
      "Ġ2008": 3123,
      "ysis": 3124,
      "Ġvoters": 3125,
      "Ġcompletely": 3126,
      "pper": 3127,
      "Ġdog": 3128,
      "Ġpan": 3129,
      "ĠTex": 3130,
      "Ġextreme": 3131,
      "entially": 3132,
      "Ġattacks": 3133,
      "Ġserious": 3134,
      "IT": 3135,
      "Ġinteresting": 3136,
      "Ġsize": 3137,
      "lear": 3138,
      "Ġprotest": 3139,
      "ĠSoc": 3140,
      "Ġslow": 3141,
      "Ġnatural": 3142,
      "bed": 3143,
      "oses": 3144,
      "Ġconserv": 3145,
      "Ġguy": 3146,
      "Ġprior": 3147,
      "Ġmajority": 3148,
      "erve": 3149,
      "Ġdespite": 3150,
      "ĠLondon": 3151,
      "ĠMcC": 3152,
      "Ġviolence": 3153,
      "Ġsafe": 3154,
      "Ġresour": 3155,
      "ago": 3156,
      "Ġrequired": 3157,
      "uit": 3158,
      "Ġshowed": 3159,
      "US": 3160,
      "uf": 3161,
      "Ġanswer": 3162,
      "Ġdefense": 3163,
      "itch": 3164,
      "Ġbox": 3165,
      "Ġwritten": 3166,
      "Ġimmig": 3167,
      "Ġclaims": 3168,
      "Ġsometimes": 3169,
      "reedom": 3170,
      "Ġund": 3171,
      "abor": 3172,
      "Ġmessage": 3173,
      "pir": 3174,
      "tr": 3175,
      "Ġ2009": 3176,
      "room": 3177,
      "ĠFebruary": 3178,
      "Ġproducts": 3179,
      "atform": 3180,
      "Ġmach": 3181,
      "Ġfinally": 3182,
      "Ġdied": 3183,
      "Ġparticularly": 3184,
      "Ġexperien": 3185,
      "22": 3186,
      "iqu": 3187,
      "ĠSaturday": 3188,
      "ĠSyria": 3189,
      "Ġcoach": 3190,
      "Ġeducation": 3191,
      "Ġupon": 3192,
      "Ġobv": 3193,
      "Ġdro": 3194,
      "ĠMark": 3195,
      "Ġsociety": 3196,
      "Ġones": 3197,
      "Ġresear": 3198,
      "ida": 3199,
      "ously": 3200,
      "Ġstarting": 3201,
      "Ġextra": 3202,
      "Ġleading": 3203,
      "ĠCons": 3204,
      "Ġstories": 3205,
      "inally": 3206,
      "ĠSand": 3207,
      "Ġpen": 3208,
      "acher": 3209,
      "Ġdoub": 3210,
      "Ġdoll": 3211,
      "Ġchief": 3212,
      "Ġexcept": 3213,
      "Ġcertainly": 3214,
      "lin": 3215,
      "Ġrange": 3216,
      "ĠEm": 3217,
      "Ġremains": 3218,
      "rench": 3219,
      "ĠMore": 3220,
      "inese": 3221,
      "Ġhistor": 3222,
      "Ġaren": 3223,
      "Ġchanged": 3224,
      "Ġaw": 3225,
      "Ġlevels": 3226,
      "Ġepis": 3227,
      "rast": 3228,
      "ĠMuslim": 3229,
      "Ġcontinued": 3230,
      "Ġmovie": 3231,
      "Ġquality": 3232,
      "Ġdamage": 3233,
      "Ġtable": 3234,
      "Ġgas": 3235,
      "Ġpoor": 3236,
      "Ġcarry": 3237,
      "Ġcross": 3238,
      "Ġexam": 3239,
      "icks": 3240,
      "Ġnamed": 3241,
      "Ġfix": 3242,
      "ET": 3243,
      "ension": 3244,
      "Ġprovided": 3245,
      "Ġpractice": 3246,
      "Ġreading": 3247,
      "Ġhundred": 3248,
      "Ġsummer": 3249,
      "eff": 3250,
      "80": 3251,
      "Ġmiddle": 3252,
      "Ġregion": 3253,
      "Ġofficers": 3254,
      "Ġscreen": 3255,
      "Ġdraw": 3256,
      "Ġlooked": 3257,
      "Ġfit": 3258,
      "Ġeight": 3259,
      "Ġconvers": 3260,
      "obile": 3261,
      "enge": 3262,
      "raq": 3263,
      "Ġdetails": 3264,
      "aught": 3265,
      "ett": 3266,
      "Ġreality": 3267,
      "Ġcorpor": 3268,
      "Ġstudent": 3269,
      "fort": 3270,
      "Ġ}": 3271,
      "light": 3272,
      "Ġment": 3273,
      "Ġefforts": 3274,
      "Ġincreased": 3275,
      "Ġculture": 3276,
      "Ġgrowing": 3277,
      "Ġdescribed": 3278,
      "Ġterm": 3279,
      "OM": 3280,
      "Ġexactly": 3281,
      "ĠNet": 3282,
      "Ġassist": 3283,
      "utions": 3284,
      "Ġil": 3285,
      "Ġcosts": 3286,
      "Ġparts": 3287,
      "Ġconsist": 3288,
      "Ġuser": 3289,
      "Ġmaintain": 3290,
      "Ġquarter": 3291,
      "IC": 3292,
      "Ġgiving": 3293,
      "24": 3294,
      "hib": 3295,
      "Ġdanger": 3296,
      "Ġwouldn": 3297,
      "ĠLeague": 3298,
      "Ġoccur": 3299,
      "ĠDonald": 3300,
      "FL": 3301,
      "aming": 3302,
      "Ġlay": 3303,
      "Ġcamer": 3304,
      "ĠLa": 3305,
      "ma": 3306,
      "akers": 3307,
      "Ġremain": 3308,
      "inary": 3309,
      "ĠFirst": 3310,
      "mitted": 3311,
      "aly": 3312,
      "Im": 3313,
      "yl": 3314,
      "isions": 3315,
      "OP": 3316,
      "ĠSer": 3317,
      "Ġspeech": 3318,
      "ĠBo": 3319,
      "Ġcomments": 3320,
      "Ġwife": 3321,
      "ĠCoun": 3322,
      "Ġdemonst": 3323,
      "ny": 3324,
      "ux": 3325,
      "Ġpurch": 3326,
      "Ġstar": 3327,
      "Ġsurv": 3328,
      "Ġthroughout": 3329,
      "ara": 3330,
      "anced": 3331,
      "Ġearn": 3332,
      "ĠDemocratic": 3333,
      "Ġimag": 3334,
      "Ġmultiple": 3335,
      "Ġunf": 3336,
      "ĠMon": 3337,
      "Ġavoid": 3338,
      "nces": 3339,
      "Ġdevice": 3340,
      "ollow": 3341,
      "Ġult": 3342,
      "ales": 3343,
      "Ġready": 3344,
      "men": 3345,
      "Ġscience": 3346,
      "ĠGener": 3347,
      "Ġâ": 3348,
      "ari": 3349,
      "Ġrob": 3350,
      "ĠTur": 3351,
      "ications": 3352,
      "Ġblog": 3353,
      "ĠInst": 3354,
      "ression": 3355,
      "rowd": 3356,
      "ĠMor": 3357,
      "Ġconcept": 3358,
      "Ġimplement": 3359,
      "ford": 3360,
      "Ġblood": 3361,
      "Ġpurp": 3362,
      "Ġmill": 3363,
      "Ġalthough": 3364,
      "?\"": 3365,
      "hest": 3366,
      "Ġtowards": 3367,
      "ĠIraq": 3368,
      "iles": 3369,
      "ston": 3370,
      "Ġproperty": 3371,
      "Ġpressure": 3372,
      "Ġthinking": 3373,
      "sp": 3374,
      "ables": 3375,
      "ĠEven": 3376,
      "Ġreceive": 3377,
      "ĠSpe": 3378,
      "lying": 3379,
      "Ġfile": 3380,
      "ĠServ": 3381,
      "Ġbeyond": 3382,
      "oul": 3383,
      "Ġpath": 3384,
      "Ġitem": 3385,
      "ĠDes": 3386,
      "Ġband": 3387,
      "oper": 3388,
      "Ġspot": 3389,
      "ĠApple": 3390,
      "Ġcomplex": 3391,
      "aph": 3392,
      "Ġwrite": 3393,
      "Ġstuff": 3394,
      "Ġperhaps": 3395,
      "No": 3396,
      "Ġcenter": 3397,
      "ĠMinister": 3398,
      "Ġwriting": 3399,
      "Ġtour": 3400,
      "urt": 3401,
      "pre": 3402,
      "Ġusually": 3403,
      "ĠJames": 3404,
      "arian": 3405,
      "iminal": 3406,
      "tered": 3407,
      "ĠBill": 3408,
      "Ġguys": 3409,
      "ĠRepublicans": 3410,
      "Ġsafety": 3411,
      "Ġ26": 3412,
      "Ġchoice": 3413,
      "Ġcele": 3414,
      "Ġsil": 3415,
      "Ġincludes": 3416,
      "airs": 3417,
      "Ġban": 3418,
      "Ġ27": 3419,
      "Ġut": 3420,
      "ports": 3421,
      "Ġdirectly": 3422,
      "Ġcouldn": 3423,
      "Ġfootball": 3424,
      "Ġsle": 3425,
      "ĠTexas": 3426,
      "Ġprison": 3427,
      "wise": 3428,
      "ĠRich": 3429,
      "Ġclos": 3430,
      "ĠChe": 3431,
      "Ġ60": 3432,
      "Ġtoward": 3433,
      "Ġremember": 3434,
      "Ġrecomm": 3435,
      "Ġtro": 3436,
      "Ġ196": 3437,
      "Ġletter": 3438,
      "Ġselect": 3439,
      "Ġhous": 3440,
      "Ġgone": 3441,
      "Ġdeg": 3442,
      "Ġ28": 3443,
      "rupt": 3444,
      "ĠChinese": 3445,
      "ĠIndian": 3446,
      "ĠJack": 3447,
      "ĠMichael": 3448,
      "arning": 3449,
      "Ġopin": 3450,
      "Ġtwe": 3451,
      "Ġdark": 3452,
      "Ġthousands": 3453,
      "roy": 3454,
      "ban": 3455,
      "uclear": 3456,
      "35": 3457,
      "Ġkids": 3458,
      "oo": 3459,
      "icient": 3460,
      "Ġalleged": 3461,
      "Ġdisapp": 3462,
      "Ġcalls": 3463,
      "Ġfigure": 3464,
      "Ġimmediately": 3465,
      "Ġadditional": 3466,
      "Ġpark": 3467,
      "Ġstage": 3468,
      "Ġdesigned": 3469,
      "zz": 3470,
      "Ġcopy": 3471,
      "Ġ(@": 3472,
      "Ġeffects": 3473,
      "Ġahead": 3474,
      "Now": 3475,
      "Ġten": 3476,
      "Ġdate": 3477,
      "ĠBen": 3478,
      "using": 3479,
      "Ġoption": 3480,
      "Ġspending": 3481,
      "imum": 3482,
      "aint": 3483,
      "Ġalone": 3484,
      "olute": 3485,
      "coin": 3486,
      "Ġagency": 3487,
      "ĠStar": 3488,
      "ĠTor": 3489,
      "ĠRober": 3490,
      "Ġleague": 3491,
      "Ġlaunch": 3492,
      "Ġchalleng": 3493,
      "omen": 3494,
      "ilies": 3495,
      "berg": 3496,
      "Ġcontribut": 3497,
      "Ġrelative": 3498,
      "Ġofficer": 3499,
      "Ġconditions": 3500,
      "Ġfa": 3501,
      "Ġcounter": 3502,
      "irth": 3503,
      "Ġencour": 3504,
      "Ġpiece": 3505,
      "Ġplatform": 3506,
      "Ġhelped": 3507,
      "rated": 3508,
      "Advertisement": 3509,
      "ĠAustralia": 3510,
      "AM": 3511,
      "Ġbattle": 3512,
      "enty": 3513,
      "Ġorganization": 3514,
      "Ġappears": 3515,
      "Ġstandard": 3516,
      "aughter": 3517,
      "Ġcomputer": 3518,
      "Ġeyes": 3519,
      "erry": 3520,
      "Ġmoving": 3521,
      "Ġcentury": 3522,
      "Ġmoved": 3523,
      "Ġstreng": 3524,
      "itor": 3525,
      "bur": 3526,
      "Ġscene": 3527,
      "Ġprec": 3528,
      "Ġlimited": 3529,
      "Ġclean": 3530,
      "Ġmeant": 3531,
      "Ġconference": 3532,
      "ĠMex": 3533,
      "atever": 3534,
      "Ġsuspect": 3535,
      "ester": 3536,
      "Ġbrain": 3537,
      "ĠII": 3538,
      "band": 3539,
      "Ġcandidate": 3540,
      "Ġsoftware": 3541,
      "ãĤ": 3542,
      "ĠGreen": 3543,
      "Ġpresidential": 3544,
      "astic": 3545,
      "ĠDemocrats": 3546,
      "ĠHer": 3547,
      "anch": 3548,
      "Ġreasons": 3549,
      "Ġcris": 3550,
      "BI": 3551,
      "All": 3552,
      "Ġhar": 3553,
      "Ġnom": 3554,
      "ampions": 3555,
      "Ġsat": 3556,
      "Ġnecessary": 3557,
      "Ġver": 3558,
      "adem": 3559,
      "100": 3560,
      "Ġfan": 3561,
      "Ġhappy": 3562,
      "Ġdebate": 3563,
      "Ġaim": 3564,
      "Ġsenior": 3565,
      "Ġfailed": 3566,
      "Pro": 3567,
      "Ġnature": 3568,
      "Ġwall": 3569,
      "ĠAssoci": 3570,
      "Ġdrive": 3571,
      "Ġanaly": 3572,
      "Don": 3573,
      "Ġcrowd": 3574,
      "ĠThen": 3575,
      "board": 3576,
      "Ġsmart": 3577,
      "Ġbeginning": 3578,
      "new": 3579,
      "Ġdifference": 3580,
      "Ġbudget": 3581,
      "lease": 3582,
      "Ġbooks": 3583,
      "23": 3584,
      "lish": 3585,
      "Ġmyself": 3586,
      "Ġcast": 3587,
      "Ġforced": 3588,
      "Ġcompared": 3589,
      "Ġcentral": 3590,
      "ĠWilliam": 3591,
      "rief": 3592,
      "aches": 3593,
      "Ġtitle": 3594,
      "Ġlic": 3595,
      "ocked": 3596,
      "ĠDay": 3597,
      "Ġtur": 3598,
      "yan": 3599,
      "Ġfirm": 3600,
      "Ġeventually": 3601,
      "Ġdisp": 3602,
      "Ġsusp": 3603,
      "Ġlargest": 3604,
      "Ġconfir": 3605,
      "Ġpassed": 3606,
      "Ġdecades": 3607,
      "Ġrock": 3608,
      "Ġmaybe": 3609,
      "Ġcat": 3610,
      "wood": 3611,
      "Ġphysical": 3612,
      "Ġestim": 3613,
      "Ġmeaning": 3614,
      "Ġshown": 3615,
      "Ġcommand": 3616,
      "ĠGovern": 3617,
      "Ġanalysis": 3618,
      "Ġschools": 3619,
      "ĠPort": 3620,
      "ivity": 3621,
      "):": 3622,
      "more": 3623,
      "orks": 3624,
      "ĠSim": 3625,
      "Ġreform": 3626,
      "Ġbal": 3627,
      "Ġrefer": 3628,
      "Ġtouch": 3629,
      "Ġsigned": 3630,
      "Ġesc": 3631,
      "ĠUnion": 3632,
      "Ġdeveloped": 3633,
      "New": 3634,
      "Ġpositive": 3635,
      "part": 3636,
      "Ġscore": 3637,
      "--------": 3638,
      "just": 3639,
      "Ġdise": 3640,
      "Ġyourself": 3641,
      "Ġconflic": 3642,
      "Ġcollege": 3643,
      "Ġeasily": 3644,
      "Ġappeared": 3645,
      "ĠSmith": 3646,
      "Ġreligious": 3647,
      "Ġstra": 3648,
      "ĠFrench": 3649,
      "ĠVal": 3650,
      "Ġgrad": 3651,
      "According": 3652,
      "Ġpus": 3653,
      "Ġinstit": 3654,
      "ĠInternet": 3655,
      "Ġcharacters": 3656,
      "Ġfeature": 3657,
      "Ġaware": 3658,
      "Ġpowerful": 3659,
      "cient": 3660,
      "add": 3661,
      "Ġautom": 3662,
      "Ġbeaut": 3663,
      "Ġexecutive": 3664,
      "Ġcustomers": 3665,
      "bum": 3666,
      "rs": 3667,
      "Ġarch": 3668,
      "aud": 3669,
      "Ġbott": 3670,
      "Ġadvant": 3671,
      "Ġign": 3672,
      "ĠBay": 3673,
      ".âĢĻ": 3674,
      "ĠCr": 3675,
      "Ġcitizens": 3676,
      "Ġfamilies": 3677,
      "Ġsales": 3678,
      "Ġilleg": 3679,
      "Be": 3680,
      "ĠMac": 3681,
      "Ġnoted": 3682,
      "Ġfrequ": 3683,
      "Ġpsych": 3684,
      "Ġdoor": 3685,
      "Ġsche": 3686,
      "venue": 3687,
      "AD": 3688,
      "Ġattract": 3689,
      "ressed": 3690,
      "HE": 3691,
      "mar": 3692,
      "ĠDis": 3693,
      "Ġfollowed": 3694,
      "ya": 3695,
      "ĠOf": 3696,
      "My": 3697,
      "Ġactions": 3698,
      "Ġpromot": 3699,
      "ĠHere": 3700,
      "ĠHam": 3701,
      "Ġpredict": 3702,
      "Ġunique": 3703,
      "Ġincome": 3704,
      "chan": 3705,
      "agon": 3706,
      "ĠMart": 3707,
      "ĠSuper": 3708,
      "Ġgives": 3709,
      "orney": 3710,
      "itation": 3711,
      "Ġoverall": 3712,
      "Ġpolitics": 3713,
      "Un": 3714,
      "Ġnice": 3715,
      "Ġdetail": 3716,
      "Ġcolor": 3717,
      "Ġprices": 3718,
      "resh": 3719,
      "OT": 3720,
      "Ġgoals": 3721,
      "Ġideas": 3722,
      "riage": 3723,
      "Ðµ": 3724,
      "ĠAir": 3725,
      "amb": 3726,
      "Ġtrust": 3727,
      "ĠMag": 3728,
      "26": 3729,
      "Ġdrop": 3730,
      "Ġdraft": 3731,
      "Ġemb": 3732,
      "rows": 3733,
      "ufact": 3734,
      "Ġlif": 3735,
      "Ġconstit": 3736,
      "Ġang": 3737,
      "Ġchallenge": 3738,
      "45": 3739,
      "ube": 3740,
      "Ġbenefits": 3741,
      "By": 3742,
      "change": 3743,
      "rol": 3744,
      "oti": 3745,
      "ona": 3746,
      "iders": 3747,
      "Ġcontinues": 3748,
      "Is": 3749,
      "gen": 3750,
      "Ġnote": 3751,
      "Ġcharge": 3752,
      "ĠPlay": 3753,
      "ĠEarth": 3754,
      "Ġbrother": 3755,
      "itely": 3756,
      "Ġcool": 3757,
      "Ġfeed": 3758,
      "Ġallows": 3759,
      "iny": 3760,
      "Ġpeace": 3761,
      "IA": 3762,
      "Ġmanager": 3763,
      "ĠSchool": 3764,
      "Ġdisplay": 3765,
      "Ġmeasure": 3766,
      "iance": 3767,
      "Ġtruth": 3768,
      "while": 3769,
      "Ġspread": 3770,
      "Ġsuccessful": 3771,
      "Ġindividuals": 3772,
      "ĠInternational": 3773,
      "Ġsell": 3774,
      "Some": 3775,
      "cul": 3776,
      "Ġapparent": 3777,
      "Ġspend": 3778,
      "iable": 3779,
      "orter": 3780,
      "Ġsto": 3781,
      "antly": 3782,
      "Ġkept": 3783,
      "âĢĿ,": 3784,
      "Ġpreviously": 3785,
      "AP": 3786,
      "lick": 3787,
      "Ġprem": 3788,
      "Ġexpand": 3789,
      "Ġrap": 3790,
      "Ġprimary": 3791,
      "craft": 3792,
      "Ġseemed": 3793,
      "Ġtreatment": 3794,
      "ĠArab": 3795,
      "Ġcrisis": 3796,
      "ãĥ": 3797,
      "iring": 3798,
      "Ġlaun": 3799,
      "Ġprograms": 3800,
      "ado": 3801,
      "Ġaltern": 3802,
      "ĠFlor": 3803,
      "Le": 3804,
      "Ġcredit": 3805,
      "ĠWind": 3806,
      "Ġintelligence": 3807,
      "uty": 3808,
      "Ġweapons": 3809,
      "Ġpoll": 3810,
      "inn": 3811,
      "ĠAngel": 3812,
      "EO": 3813,
      "ville": 3814,
      "Ġnuclear": 3815,
      "Ġuses": 3816,
      "27": 3817,
      "icago": 3818,
      "secut": 3819,
      "Ġrule": 3820,
      "onent": 3821,
      "ĠHigh": 3822,
      "levision": 3823,
      "Ġcrime": 3824,
      "Ġfighting": 3825,
      "inger": 3826,
      "Ġcities": 3827,
      "ĠPolice": 3828,
      "Ġwilling": 3829,
      "ki": 3830,
      "ounds": 3831,
      "Ġfully": 3832,
      "Ġsave": 3833,
      "Ġclearly": 3834,
      "Ġrare": 3835,
      "Ar": 3836,
      "olic": 3837,
      "ĠEU": 3838,
      "ocks": 3839,
      "rate": 3840,
      "Ġswe": 3841,
      "Ġplaces": 3842,
      "Ġactivity": 3843,
      "ĠTom": 3844,
      "Ġrates": 3845,
      "Ġtraff": 3846,
      "stitute": 3847,
      "ĠEnglish": 3848,
      "ĠGeorge": 3849,
      "Ġenem": 3850,
      "Ġfine": 3851,
      "Ġcriminal": 3852,
      "encies": 3853,
      "Ġended": 3854,
      "Ġstraight": 3855,
      "Ġknows": 3856,
      "Ġhappens": 3857,
      "onents": 3858,
      "Ġreached": 3859,
      "ken": 3860,
      "nown": 3861,
      "Ġmix": 3862,
      "Ġresearchers": 3863,
      "Ġhaven": 3864,
      "ĠEngland": 3865,
      "Ġshut": 3866,
      "Ġmist": 3867,
      "owers": 3868,
      "Ġalbum": 3869,
      "Ġgrand": 3870,
      "Ġhighly": 3871,
      "Ġincident": 3872,
      "Ġrelated": 3873,
      "ares": 3874,
      "icit": 3875,
      "Ġintegr": 3876,
      "ĠChristian": 3877,
      "etro": 3878,
      "ĠCouncil": 3879,
      "Ġauthorities": 3880,
      "Ġlines": 3881,
      "Ġsupposed": 3882,
      "Ġcorrect": 3883,
      "ĠRob": 3884,
      "erved": 3885,
      "Ġresources": 3886,
      "Ġweb": 3887,
      "Ġrank": 3888,
      "Ġknowledge": 3889,
      "wide": 3890,
      "Ġwait": 3891,
      "mission": 3892,
      "osh": 3893,
      "Ġlarger": 3894,
      "Ġowners": 3895,
      "ĠGeneral": 3896,
      "ĠBel": 3897,
      "Ġcommer": 3898,
      "Ġspir": 3899,
      "Ġplant": 3900,
      "ica": 3901,
      "ĠUp": 3902,
      "Ġprojects": 3903,
      "Ġoptions": 3904,
      "dom": 3905,
      "Ġarm": 3906,
      "roll": 3907,
      "box": 3908,
      "Ġsend": 3909,
      "Ġoffered": 3910,
      "Ġfemale": 3911,
      "uing": 3912,
      "Ġminor": 3913,
      "miss": 3914,
      "Ġbasic": 3915,
      "Ġabsolute": 3916,
      "Ġshooting": 3917,
      "Ġrise": 3918,
      "ĠGold": 3919,
      "ĠSecret": 3920,
      "urance": 3921,
      "term": 3922,
      "Ġ29": 3923,
      "inated": 3924,
      "Ġsources": 3925,
      "Ġbeat": 3926,
      "ĠComp": 3927,
      "Ġclaimed": 3928,
      "Ġemot": 3929,
      "Ġcaused": 3930,
      "Ġvoice": 3931,
      "Ġfeet": 3932,
      "ĠGermany": 3933,
      "sey": 3934,
      "Ġ*": 3935,
      "Ġraised": 3936,
      "see": 3937,
      "istry": 3938,
      "ean": 3939,
      "Ġacqu": 3940,
      "ĠFlorida": 3941,
      "ĠRec": 3942,
      "Ġir": 3943,
      "vere": 3944,
      "Ġconcerns": 3945,
      "Ġmostly": 3946,
      "org": 3947,
      "Ġmission": 3948,
      "ĠÂ£": 3949,
      "ĠFrom": 3950,
      "ĠStud": 3951,
      "Ġvirt": 3952,
      "iled": 3953,
      "Ġdire": 3954,
      "ipped": 3955,
      "Ġpush": 3956,
      "Ġgreater": 3957,
      "Ġeye": 3958,
      "Ġindic": 3959,
      "Ġregular": 3960,
      "Ġbab": 3961,
      "Ġsubst": 3962,
      "iced": 3963,
      "Ġcalling": 3964,
      "Ġpun": 3965,
      "Ġunc": 3966,
      "Sc": 3967,
      "ĠPhil": 3968,
      "21": 3969,
      "Ġgreen": 3970,
      "ĠEvery": 3971,
      "Ġ2007": 3972,
      "Ġtrou": 3973,
      "iverse": 3974,
      "ĠBrown": 3975,
      "Ġtemper": 3976,
      "ingly": 3977,
      "Ġpropos": 3978,
      "mark": 3979,
      "Ġborder": 3980,
      "Ġseeing": 3981,
      "ugg": 3982,
      "soft": 3983,
      "Ġpolicies": 3984,
      "Ġtraditional": 3985,
      "ĠAP": 3986,
      "Ġstudies": 3987,
      "Ġadop": 3988,
      "ĠCap": 3989,
      "28": 3990,
      "EC": 3991,
      "Ġbeg": 3992,
      "ĠDef": 3993,
      "Ġmechan": 3994,
      "Ġparties": 3995,
      "Ġscen": 3996,
      "Ġactual": 3997,
      "bon": 3998,
      "Ġliter": 3999,
      "Ġlearned": 4000,
      "Ġstatus": 4001,
      "Ġmanufact": 4002,
      "Ġfreedom": 4003,
      "Ġensure": 4004,
      "itude": 4005,
      "Ġlawy": 4006,
      "Ġwild": 4007,
      "Ġpicture": 4008,
      "Here": 4009,
      "ĠTrans": 4010,
      "Ġrevealed": 4011,
      "Ġeth": 4012,
      "Ġpatients": 4013,
      "Ġlearning": 4014,
      "ota": 4015,
      "Ġslight": 4016,
      "ifying": 4017,
      "ĠMP": 4018,
      "oday": 4019,
      "Ġoperations": 4020,
      "Not": 4021,
      "ĠAnt": 4022,
      "ented": 4023,
      "Ġlose": 4024,
      "Ġnames": 4025,
      "ribution": 4026,
      "ront": 4027,
      "Ġnormal": 4028,
      "Ġhospital": 4029,
      "Ġjudge": 4030,
      "Ġpros": 4031,
      "Ġassault": 4032,
      "ipp": 4033,
      "Ġbelieved": 4034,
      "Ġminister": 4035,
      "Ġbirth": 4036,
      "Ġweekend": 4037,
      "Ġstreet": 4038,
      "Ġagreement": 4039,
      "Ġqual": 4040,
      "ĠChicago": 4041,
      "Ġdrink": 4042,
      "ength": 4043,
      "itness": 4044,
      "Ġnegoti": 4045,
      "==": 4046,
      "Ġborn": 4047,
      "Ġelectric": 4048,
      "Ġleaving": 4049,
      "Ġprint": 4050,
      "Ġadding": 4051,
      "90": 4052,
      "aks": 4053,
      "rav": 4054,
      "Ġemployees": 4055,
      "Ġinfluence": 4056,
      "Ġdream": 4057,
      "umn": 4058,
      "Ġorganiz": 4059,
      "ibrary": 4060,
      "ĠOh": 4061,
      "Ġindependent": 4062,
      "Ġstrate": 4063,
      "dd": 4064,
      "Ġstation": 4065,
      "Ġstrategy": 4066,
      "net": 4067,
      "mittee": 4068,
      "Ġdetermin": 4069,
      "Ġfavorite": 4070,
      "Ġresponsible": 4071,
      "ĠMost": 4072,
      "Ġreflect": 4073,
      "ĠSun": 4074,
      "Ġmassive": 4075,
      "Ġfunding": 4076,
      "Ġlik": 4077,
      "Ġopening": 4078,
      "Ġimpl": 4079,
      "ĠJohnson": 4080,
      "rian": 4081,
      "ĠFrance": 4082,
      "Ġepisode": 4083,
      "ĠDel": 4084,
      "Ġjump": 4085,
      "Ġdistrict": 4086,
      "Ġrestrict": 4087,
      "ĠAccording": 4088,
      "Ġteacher": 4089,
      "Ġrecords": 4090,
      "Ġtrial": 4091,
      "Ġconfirmed": 4092,
      "Ġapplication": 4093,
      "Ġprovides": 4094,
      "ĠWestern": 4095
    },
    "merges": [
      [
        "Ġ",
        "t"
      ],
      [
        "Ġ",
        "a"
      ],
      [
        "h",
        "e"
      ],
      [
        "i",
        "n"
      ],
      [
        "r",
        "e"
      ],
      [
        "Ġt",
        "he"
      ],
      [
        "o",
        "n"
      ],
      [
        "e",
        "r"
      ],
      [
        "Ġ",
        "s"
      ],
      [
        "Ġ",
        "w"
      ],
      [
        "a",
        "t"
      ],
      [
        "Ġ",
        "o"
      ],
      [
        "e",
        "n"
      ],
      [
        "Ġ",
        "c"
      ],
      [
        "i",
        "t"
      ],
      [
        "i",
        "s"
      ],
      [
        "a",
        "n"
      ],
      [
        "o",
        "r"
      ],
      [
        "Ġ",
        "b"
      ],
      [
        "e",
        "s"
      ],
      [
        "e",
        "d"
      ],
      [
        "Ġ",
        "f"
      ],
      [
        "in",
        "g"
      ],
      [
        "Ġ",
        "p"
      ],
      [
        "o",
        "u"
      ],
      [
        "Ġa",
        "n"
      ],
      [
        "a",
        "l"
      ],
      [
        "Ġt",
        "o"
      ],
      [
        "a",
        "r"
      ],
      [
        "Ġ",
        "m"
      ],
      [
        "Ġ",
        "in"
      ],
      [
        "Ġo",
        "f"
      ],
      [
        "Ġ",
        "d"
      ],
      [
        "Ġ",
        "h"
      ],
      [
        "â",
        "Ģ"
      ],
      [
        "a",
        "s"
      ],
      [
        "i",
        "c"
      ],
      [
        "Ġan",
        "d"
      ],
      [
        "Ġt",
        "h"
      ],
      [
        "l",
        "e"
      ],
      [
        "o",
        "m"
      ],
      [
        "i",
        "on"
      ],
      [
        "l",
        "l"
      ],
      [
        "en",
        "t"
      ],
      [
        "Ġ",
        "n"
      ],
      [
        "Ġ",
        "l"
      ],
      [
        "Ġ",
        "re"
      ],
      [
        "s",
        "t"
      ],
      [
        "v",
        "e"
      ],
      [
        "l",
        "y"
      ],
      [
        "Ġ",
        "e"
      ],
      [
        "r",
        "o"
      ],
      [
        "Ġb",
        "e"
      ],
      [
        "Ġ",
        "g"
      ],
      [
        "i",
        "d"
      ],
      [
        "u",
        "t"
      ],
      [
        "a",
        "c"
      ],
      [
        "o",
        "t"
      ],
      [
        "Ġ",
        "T"
      ],
      [
        "Ġth",
        "at"
      ],
      [
        "Ġ",
        "on"
      ],
      [
        "Ġ",
        "I"
      ],
      [
        "a",
        "y"
      ],
      [
        "Ġ",
        "S"
      ],
      [
        "Ġ",
        "is"
      ],
      [
        "e",
        "t"
      ],
      [
        "i",
        "m"
      ],
      [
        "a",
        "d"
      ],
      [
        "a",
        "m"
      ],
      [
        "o",
        "w"
      ],
      [
        "âĢ",
        "Ļ"
      ],
      [
        "Ġf",
        "or"
      ],
      [
        "s",
        "e"
      ],
      [
        "i",
        "g"
      ],
      [
        "v",
        "er"
      ],
      [
        "Ġ",
        "A"
      ],
      [
        "l",
        "d"
      ],
      [
        "u",
        "r"
      ],
      [
        "c",
        "t"
      ],
      [
        "Ġ",
        "C"
      ],
      [
        "Ġ",
        "u"
      ],
      [
        "Ġs",
        "t"
      ],
      [
        "Ġ",
        "y"
      ],
      [
        "Ġ",
        "it"
      ],
      [
        "Ġ",
        "he"
      ],
      [
        "i",
        "r"
      ],
      [
        "at",
        "ion"
      ],
      [
        "Ġw",
        "h"
      ],
      [
        "it",
        "h"
      ],
      [
        "Ġ",
        "M"
      ],
      [
        "c",
        "e"
      ],
      [
        "t",
        "er"
      ],
      [
        "Ġw",
        "e"
      ],
      [
        "o",
        "l"
      ],
      [
        "i",
        "l"
      ],
      [
        "Ġw",
        "ith"
      ],
      [
        "Ġa",
        "s"
      ],
      [
        "c",
        "h"
      ],
      [
        "Ġ",
        "B"
      ],
      [
        "i",
        "ll"
      ],
      [
        "n",
        "d"
      ],
      [
        "Ġ",
        "P"
      ],
      [
        "Ġw",
        "as"
      ],
      [
        "er",
        "s"
      ],
      [
        "Ġy",
        "ou"
      ],
      [
        "Ġ",
        "âĢ"
      ],
      [
        "k",
        "e"
      ],
      [
        "Ġc",
        "on"
      ],
      [
        "Ġd",
        "e"
      ],
      [
        "Ġ",
        "r"
      ],
      [
        "he",
        "r"
      ],
      [
        "at",
        "e"
      ],
      [
        "i",
        "f"
      ],
      [
        "a",
        "g"
      ],
      [
        "Ġa",
        "t"
      ],
      [
        "Ġh",
        "a"
      ],
      [
        "Ġ",
        "W"
      ],
      [
        "Ġs",
        "e"
      ],
      [
        "Ġ",
        "H"
      ],
      [
        "Ġp",
        "ro"
      ],
      [
        "o",
        "re"
      ],
      [
        "p",
        "p"
      ],
      [
        "u",
        "l"
      ],
      [
        "r",
        "i"
      ],
      [
        "m",
        "ent"
      ],
      [
        "Ġa",
        "re"
      ],
      [
        "Ġ",
        "D"
      ],
      [
        "Ġc",
        "om"
      ],
      [
        "u",
        "s"
      ],
      [
        "es",
        "t"
      ],
      [
        "Ġ",
        "1"
      ],
      [
        "Ġ",
        "R"
      ],
      [
        "is",
        "t"
      ],
      [
        "an",
        "d"
      ],
      [
        "a",
        "in"
      ],
      [
        "o",
        "p"
      ],
      [
        "ĠT",
        "he"
      ],
      [
        "ig",
        "h"
      ],
      [
        "en",
        "d"
      ],
      [
        "Ġ",
        "2"
      ],
      [
        "r",
        "om"
      ],
      [
        "or",
        "t"
      ],
      [
        "t",
        "e"
      ],
      [
        "Ġn",
        "e"
      ],
      [
        "o",
        "d"
      ],
      [
        "Ġ",
        "F"
      ],
      [
        "Ġ",
        "("
      ],
      [
        "âĢ",
        "Ŀ"
      ],
      [
        "u",
        "m"
      ],
      [
        "u",
        "n"
      ],
      [
        "Ġe",
        "x"
      ],
      [
        "re",
        "s"
      ],
      [
        "a",
        "b"
      ],
      [
        "Ġ",
        "N"
      ],
      [
        "Ġ",
        "v"
      ],
      [
        "Ġn",
        "ot"
      ],
      [
        "it",
        "y"
      ],
      [
        "Ġha",
        "ve"
      ],
      [
        "es",
        "s"
      ],
      [
        "ou",
        "ld"
      ],
      [
        "o",
        "s"
      ],
      [
        "Ġo",
        "r"
      ],
      [
        "t",
        "h"
      ],
      [
        "Ġb",
        "y"
      ],
      [
        "Ġ",
        "G"
      ],
      [
        "i",
        "ve"
      ],
      [
        "Ġa",
        "l"
      ],
      [
        "an",
        "t"
      ],
      [
        "Ġf",
        "rom"
      ],
      [
        "'",
        "s"
      ],
      [
        "o",
        "c"
      ],
      [
        "Ġs",
        "u"
      ],
      [
        "ar",
        "t"
      ],
      [
        "Ġ",
        "L"
      ],
      [
        "e",
        "l"
      ],
      [
        "Ġs",
        "h"
      ],
      [
        "e",
        "m"
      ],
      [
        "q",
        "u"
      ],
      [
        "Ġth",
        "is"
      ],
      [
        "n",
        "t"
      ],
      [
        "igh",
        "t"
      ],
      [
        "u",
        "st"
      ],
      [
        "p",
        "e"
      ],
      [
        "Ġ",
        "le"
      ],
      [
        "i",
        "es"
      ],
      [
        "Ġs",
        "a"
      ],
      [
        "Ġ",
        "E"
      ],
      [
        "Ġc",
        "h"
      ],
      [
        "T",
        "he"
      ],
      [
        "Ġa",
        "b"
      ],
      [
        "ĠâĢ",
        "ľ"
      ],
      [
        "0",
        "0"
      ],
      [
        "ou",
        "t"
      ],
      [
        "i",
        "e"
      ],
      [
        "al",
        "l"
      ],
      [
        "re",
        "d"
      ],
      [
        "Ġh",
        "as"
      ],
      [
        "ac",
        "k"
      ],
      [
        "Ġp",
        "l"
      ],
      [
        "al",
        "ly"
      ],
      [
        "Ġ",
        "J"
      ],
      [
        "Ġg",
        "o"
      ],
      [
        "ar",
        "d"
      ],
      [
        "Ġh",
        "is"
      ],
      [
        "om",
        "e"
      ],
      [
        "i",
        "v"
      ],
      [
        "o",
        "st"
      ],
      [
        "ou",
        "r"
      ],
      [
        "e",
        "ar"
      ],
      [
        "g",
        "h"
      ],
      [
        "a",
        "p"
      ],
      [
        "Ġt",
        "r"
      ],
      [
        "Ġ",
        "j"
      ],
      [
        "u",
        "d"
      ],
      [
        "Ġ",
        "O"
      ],
      [
        "a",
        "k"
      ],
      [
        "as",
        "t"
      ],
      [
        "Ġd",
        "o"
      ],
      [
        "Ġthe",
        "y"
      ],
      [
        "Ġsa",
        "id"
      ],
      [
        "Ġw",
        "ill"
      ],
      [
        "Ġb",
        "ut"
      ],
      [
        "r",
        "ou"
      ],
      [
        "Ġw",
        "or"
      ],
      [
        "Ġ",
        "U"
      ],
      [
        "Ġw",
        "he"
      ],
      [
        "Ġc",
        "an"
      ],
      [
        "g",
        "e"
      ],
      [
        "ic",
        "h"
      ],
      [
        "Ġ",
        "k"
      ],
      [
        "o",
        "k"
      ],
      [
        "Ġa",
        "ll"
      ],
      [
        "Ġwh",
        "o"
      ],
      [
        "id",
        "e"
      ],
      [
        "Ġ",
        "\""
      ],
      [
        "t",
        "her"
      ],
      [
        "an",
        "s"
      ],
      [
        "am",
        "e"
      ],
      [
        "Ġthe",
        "ir"
      ],
      [
        "Ġo",
        "ut"
      ],
      [
        "i",
        "al"
      ],
      [
        "f",
        "f"
      ],
      [
        "ic",
        "e"
      ],
      [
        "on",
        "g"
      ],
      [
        "p",
        "l"
      ],
      [
        "u",
        "re"
      ],
      [
        "ag",
        "e"
      ],
      [
        "on",
        "e"
      ],
      [
        "Ġm",
        "ore"
      ],
      [
        "i",
        "ke"
      ],
      [
        "ion",
        "s"
      ],
      [
        "ac",
        "t"
      ],
      [
        "Ġu",
        "p"
      ],
      [
        "ou",
        "s"
      ],
      [
        "Ġm",
        "e"
      ],
      [
        "Ġa",
        "d"
      ],
      [
        "in",
        "e"
      ],
      [
        "e",
        "p"
      ],
      [
        "b",
        "er"
      ],
      [
        "Ġab",
        "out"
      ],
      [
        "at",
        "ed"
      ],
      [
        "Ġwe",
        "re"
      ],
      [
        "i",
        "a"
      ],
      [
        "Ġ",
        "K"
      ],
      [
        "Ġs",
        "o"
      ],
      [
        "o",
        "g"
      ],
      [
        "Ġon",
        "e"
      ],
      [
        "im",
        "e"
      ],
      [
        "r",
        "a"
      ],
      [
        "e",
        "ct"
      ],
      [
        "p",
        "t"
      ],
      [
        "Ġu",
        "s"
      ],
      [
        "Ġh",
        "ad"
      ],
      [
        "u",
        "b"
      ],
      [
        "a",
        "re"
      ],
      [
        "Ġw",
        "ould"
      ],
      [
        "Ġ2",
        "0"
      ],
      [
        "c",
        "c"
      ],
      [
        "Ġc",
        "l"
      ],
      [
        "Ġwh",
        "ich"
      ],
      [
        "x",
        "t"
      ],
      [
        "Ġa",
        "g"
      ],
      [
        "a",
        "ke"
      ],
      [
        "Ġ",
        "im"
      ],
      [
        "in",
        "d"
      ],
      [
        "u",
        "e"
      ],
      [
        "Ġt",
        "e"
      ],
      [
        "ver",
        "y"
      ],
      [
        "Ġof",
        "f"
      ],
      [
        "Ġcom",
        "p"
      ],
      [
        "Ġu",
        "n"
      ],
      [
        "i",
        "z"
      ],
      [
        "Ġbe",
        "en"
      ],
      [
        "s",
        "o"
      ],
      [
        "p",
        "er"
      ],
      [
        "Ġ",
        "en"
      ],
      [
        "Ġin",
        "t"
      ],
      [
        "ar",
        "y"
      ],
      [
        "ig",
        "n"
      ],
      [
        "a",
        "u"
      ],
      [
        "Ġcon",
        "t"
      ],
      [
        "Ġy",
        "ear"
      ],
      [
        "ĠT",
        "h"
      ],
      [
        "ac",
        "e"
      ],
      [
        "i",
        "p"
      ],
      [
        ".",
        "."
      ],
      [
        "e",
        "w"
      ],
      [
        "o",
        "ok"
      ],
      [
        "Ġl",
        "ike"
      ],
      [
        "v",
        "en"
      ],
      [
        "Ġin",
        "c"
      ],
      [
        "o",
        "se"
      ],
      [
        "r",
        "y"
      ],
      [
        "Ġp",
        "e"
      ],
      [
        "Ġm",
        "an"
      ],
      [
        "ay",
        "s"
      ],
      [
        "ĠI",
        "n"
      ],
      [
        "Ġs",
        "p"
      ],
      [
        "Ġre",
        "s"
      ],
      [
        "Ġp",
        "er"
      ],
      [
        "ab",
        "le"
      ],
      [
        "as",
        "s"
      ],
      [
        "it",
        "e"
      ],
      [
        "i",
        "re"
      ],
      [
        "or",
        "d"
      ],
      [
        "i",
        "b"
      ],
      [
        "Ġo",
        "ther"
      ],
      [
        "i",
        "le"
      ],
      [
        "m",
        "er"
      ],
      [
        "ĠS",
        "t"
      ],
      [
        "Ġs",
        "ome"
      ],
      [
        "Ġ20",
        "1"
      ],
      [
        "op",
        "le"
      ],
      [
        "Ġo",
        "ver"
      ],
      [
        "en",
        "ce"
      ],
      [
        "k",
        "s"
      ],
      [
        "ation",
        "s"
      ],
      [
        "res",
        "s"
      ],
      [
        "Ġne",
        "w"
      ],
      [
        "Ġal",
        "so"
      ],
      [
        "Ġd",
        "is"
      ],
      [
        "Ġthe",
        "re"
      ],
      [
        "ic",
        "al"
      ],
      [
        "ul",
        "t"
      ],
      [
        "Ġbe",
        "c"
      ],
      [
        "ow",
        "n"
      ],
      [
        "Ġth",
        "an"
      ],
      [
        "Ġa",
        "r"
      ],
      [
        "an",
        "ce"
      ],
      [
        "ou",
        "gh"
      ],
      [
        "Ġthe",
        "m"
      ],
      [
        "ou",
        "nt"
      ],
      [
        "Ġp",
        "art"
      ],
      [
        "r",
        "u"
      ],
      [
        "re",
        "e"
      ],
      [
        "p",
        "ort"
      ],
      [
        "Ġa",
        "pp"
      ],
      [
        "Ġwhe",
        "n"
      ],
      [
        "a",
        "il"
      ],
      [
        "on",
        "d"
      ],
      [
        "Ġwh",
        "at"
      ],
      [
        "Ġpe",
        "ople"
      ],
      [
        "Ġ",
        "qu"
      ],
      [
        "Ġyou",
        "r"
      ],
      [
        "f",
        "ter"
      ],
      [
        "in",
        "t"
      ],
      [
        "or",
        "m"
      ],
      [
        "as",
        "e"
      ],
      [
        "Ġs",
        "c"
      ],
      [
        "ĠC",
        "h"
      ],
      [
        "Ġit",
        "s"
      ],
      [
        "Ġj",
        "ust"
      ],
      [
        "a",
        "v"
      ],
      [
        "Ġan",
        "y"
      ],
      [
        "o",
        "f"
      ],
      [
        "Ġ",
        "Y"
      ],
      [
        ".",
        "âĢĿ"
      ],
      [
        "Ġk",
        "n"
      ],
      [
        "Ġt",
        "ime"
      ],
      [
        "l",
        "ic"
      ],
      [
        "Ġhe",
        "r"
      ],
      [
        "ĠI",
        "t"
      ],
      [
        "ct",
        "ion"
      ],
      [
        "ac",
        "h"
      ],
      [
        "en",
        "s"
      ],
      [
        "i",
        "an"
      ],
      [
        "Ġ",
        "if"
      ],
      [
        "Ġre",
        "c"
      ],
      [
        "Ġt",
        "w"
      ],
      [
        "Ġm",
        "y"
      ],
      [
        "Ġint",
        "o"
      ],
      [
        "re",
        "at"
      ],
      [
        "Ġg",
        "et"
      ],
      [
        "ve",
        "l"
      ],
      [
        "ir",
        "st"
      ],
      [
        "Ġwor",
        "k"
      ],
      [
        "Ġ",
        "V"
      ],
      [
        "ou",
        "nd"
      ],
      [
        "d",
        "u"
      ],
      [
        "o",
        "b"
      ],
      [
        "Ġ",
        "3"
      ],
      [
        "e",
        "re"
      ],
      [
        "or",
        "s"
      ],
      [
        "ing",
        "s"
      ],
      [
        "or",
        "y"
      ],
      [
        "ic",
        "k"
      ],
      [
        "Ġo",
        "ur"
      ],
      [
        "id",
        "ent"
      ],
      [
        "o",
        "ve"
      ],
      [
        "Ġp",
        "re"
      ],
      [
        "it",
        "ion"
      ],
      [
        "Ġpl",
        "ay"
      ],
      [
        "Ġn",
        "o"
      ],
      [
        "an",
        "g"
      ],
      [
        "in",
        "k"
      ],
      [
        "te",
        "xt"
      ],
      [
        ",",
        "âĢĿ"
      ],
      [
        "au",
        "se"
      ],
      [
        "at",
        "es"
      ],
      [
        "ar",
        "k"
      ],
      [
        "ad",
        "e"
      ],
      [
        "h",
        "ing"
      ],
      [
        "w",
        "n"
      ],
      [
        "Ġ",
        "ro"
      ],
      [
        "ver",
        "s"
      ],
      [
        "Ġ",
        "-"
      ],
      [
        "Ġp",
        "ol"
      ],
      [
        "Ġs",
        "he"
      ],
      [
        "Ġ1",
        "9"
      ],
      [
        "am",
        "p"
      ],
      [
        "ĠH",
        "e"
      ],
      [
        "Ġa",
        "fter"
      ],
      [
        "Ġh",
        "ow"
      ],
      [
        "Ġf",
        "irst"
      ],
      [
        "Ġc",
        "ould"
      ],
      [
        "Ġc",
        "o"
      ],
      [
        "i",
        "ous"
      ],
      [
        "n",
        "e"
      ],
      [
        "nd",
        "er"
      ],
      [
        "i",
        "ld"
      ],
      [
        "Ġa",
        "cc"
      ],
      [
        "|",
        ">"
      ],
      [
        "<",
        "|"
      ],
      [
        "end",
        "of"
      ],
      [
        "endof",
        "text"
      ],
      [
        "on",
        "s"
      ],
      [
        "'",
        "t"
      ],
      [
        "a",
        "w"
      ],
      [
        "Ġf",
        "e"
      ],
      [
        "Ġh",
        "im"
      ],
      [
        "Ġp",
        "o"
      ],
      [
        "âĢ",
        "ľ"
      ],
      [
        "he",
        "d"
      ],
      [
        "o",
        "v"
      ],
      [
        "Ġon",
        "ly"
      ],
      [
        "er",
        "v"
      ],
      [
        "ic",
        "t"
      ],
      [
        "Ġtw",
        "o"
      ],
      [
        "r",
        "it"
      ],
      [
        "Ġp",
        "r"
      ],
      [
        "f",
        "orm"
      ],
      [
        "Ġb",
        "l"
      ],
      [
        "is",
        "h"
      ],
      [
        "Ġs",
        "pe"
      ],
      [
        "Ġcom",
        "m"
      ],
      [
        "Ġa",
        "ct"
      ],
      [
        "ĠâĢ",
        "ĵ"
      ],
      [
        "Ġde",
        "c"
      ],
      [
        "w",
        "e"
      ],
      [
        "Ġbe",
        "t"
      ],
      [
        ".",
        "\""
      ],
      [
        "n",
        "ing"
      ],
      [
        "Ġb",
        "ack"
      ],
      [
        "Ġm",
        "ost"
      ],
      [
        "c",
        "k"
      ],
      [
        "c",
        "es"
      ],
      [
        "o",
        "y"
      ],
      [
        "at",
        "er"
      ],
      [
        "rou",
        "gh"
      ],
      [
        "Ġag",
        "ain"
      ],
      [
        "f",
        "t"
      ],
      [
        "Ġa",
        "m"
      ],
      [
        "Ġf",
        "o"
      ],
      [
        "if",
        "f"
      ],
      [
        "is",
        "e"
      ],
      [
        "rou",
        "nd"
      ],
      [
        "Ġd",
        "id"
      ],
      [
        "d",
        "ay"
      ],
      [
        "Ġu",
        "nder"
      ],
      [
        "u",
        "al"
      ],
      [
        "ent",
        "s"
      ],
      [
        "u",
        "ll"
      ],
      [
        "l",
        "ud"
      ],
      [
        "ub",
        "lic"
      ],
      [
        "Ġd",
        "es"
      ],
      [
        "Ġbec",
        "ause"
      ],
      [
        "Ġn",
        "ow"
      ],
      [
        "Ġw",
        "ant"
      ],
      [
        "se",
        "l"
      ],
      [
        "Ġyear",
        "s"
      ],
      [
        "Ġcon",
        "s"
      ],
      [
        "ter",
        "n"
      ],
      [
        "m",
        "an"
      ],
      [
        "is",
        "s"
      ],
      [
        "ĠâĢ",
        "Ķ"
      ],
      [
        "Ġ",
        "4"
      ],
      [
        "Ġkn",
        "ow"
      ],
      [
        "Ġ",
        "$"
      ],
      [
        "Ġin",
        "v"
      ],
      [
        "Ġat",
        "t"
      ],
      [
        "Ġne",
        "ed"
      ],
      [
        "Ġe",
        "ven"
      ],
      [
        "ĠW",
        "e"
      ],
      [
        "e",
        "c"
      ],
      [
        "ment",
        "s"
      ],
      [
        "Ġad",
        "d"
      ],
      [
        "c",
        "ed"
      ],
      [
        "Ġse",
        "c"
      ],
      [
        "Ġin",
        "d"
      ],
      [
        "ĠU",
        "n"
      ],
      [
        "t",
        "ing"
      ],
      [
        "Ġse",
        "e"
      ],
      [
        ",",
        "\""
      ],
      [
        "Ġsu",
        "pp"
      ],
      [
        "u",
        "ch"
      ],
      [
        "f",
        "ore"
      ],
      [
        "ur",
        "n"
      ],
      [
        "Ġe",
        "very"
      ],
      [
        "o",
        "ld"
      ],
      [
        "I",
        "n"
      ],
      [
        "oc",
        "k"
      ],
      [
        "pe",
        "ct"
      ],
      [
        "Ġwhe",
        "re"
      ],
      [
        "Ġm",
        "ake"
      ],
      [
        "j",
        "ect"
      ],
      [
        "Ġe",
        "m"
      ],
      [
        "Ġthe",
        "se"
      ],
      [
        "Ġd",
        "on"
      ],
      [
        "Ġ",
        "5"
      ],
      [
        "Ġl",
        "ook"
      ],
      [
        "ver",
        "n"
      ],
      [
        "ation",
        "al"
      ],
      [
        "os",
        "s"
      ],
      [
        "T",
        "h"
      ],
      [
        "Ġb",
        "u"
      ],
      [
        "Ġbe",
        "ing"
      ],
      [
        "i",
        "ly"
      ],
      [
        "ĠA",
        "nd"
      ],
      [
        "Ġw",
        "ay"
      ],
      [
        "at",
        "ing"
      ],
      [
        "Ġman",
        "y"
      ],
      [
        "Ġe",
        "v"
      ],
      [
        "um",
        "p"
      ],
      [
        "n",
        "g"
      ],
      [
        "Ġm",
        "ay"
      ],
      [
        "Ġre",
        "m"
      ],
      [
        "as",
        "on"
      ],
      [
        "ĠT",
        "r"
      ],
      [
        "Ġr",
        "ight"
      ],
      [
        "on",
        "t"
      ],
      [
        "Ġinc",
        "lud"
      ],
      [
        "ĠB",
        "ut"
      ],
      [
        "ie",
        "w"
      ],
      [
        "as",
        "ed"
      ],
      [
        "le",
        "ct"
      ],
      [
        "it",
        "ed"
      ],
      [
        "Ġth",
        "ink"
      ],
      [
        "Ġre",
        "l"
      ],
      [
        "ro",
        "w"
      ],
      [
        "Ġthe",
        "n"
      ],
      [
        "ak",
        "ing"
      ],
      [
        "Ġd",
        "iff"
      ],
      [
        "Ġc",
        "all"
      ],
      [
        "Ġde",
        "f"
      ],
      [
        "i",
        "ed"
      ],
      [
        "o",
        "od"
      ],
      [
        "l",
        "es"
      ],
      [
        "Ġth",
        "rough"
      ],
      [
        ")",
        "."
      ],
      [
        "ri",
        "b"
      ],
      [
        "Ġre",
        "g"
      ],
      [
        "Ġim",
        "p"
      ],
      [
        "ot",
        "her"
      ],
      [
        "Ġ",
        "very"
      ],
      [
        "Ġl",
        "ast"
      ],
      [
        "Ġsh",
        "ow"
      ],
      [
        "ur",
        "ing"
      ],
      [
        "mer",
        "ic"
      ],
      [
        "Ġth",
        "ose"
      ],
      [
        "Ġs",
        "y"
      ],
      [
        "Ġf",
        "l"
      ],
      [
        "Ġs",
        "ay"
      ],
      [
        "t",
        "y"
      ],
      [
        "Ġp",
        "res"
      ],
      [
        "at",
        "ive"
      ],
      [
        "it",
        "ies"
      ],
      [
        "Ġp",
        "h"
      ],
      [
        "Ġm",
        "uch"
      ],
      [
        "Ġsh",
        "ould"
      ],
      [
        "at",
        "h"
      ],
      [
        "Ġb",
        "r"
      ],
      [
        "Ġst",
        "ate"
      ],
      [
        "s",
        "s"
      ],
      [
        "ow",
        "er"
      ],
      [
        "if",
        "ic"
      ],
      [
        "t",
        "le"
      ],
      [
        "ic",
        "s"
      ],
      [
        "ĠTh",
        "is"
      ],
      [
        "u",
        "nd"
      ],
      [
        "ĠW",
        "h"
      ],
      [
        "Ġ2",
        "00"
      ],
      [
        "he",
        "n"
      ],
      [
        "Ġc",
        "ount"
      ],
      [
        "Ġbe",
        "l"
      ],
      [
        "Ġd",
        "own"
      ],
      [
        "Ġm",
        "on"
      ],
      [
        "ot",
        "h"
      ],
      [
        "Ġwe",
        "ll"
      ],
      [
        "ar",
        "g"
      ],
      [
        "Ġdo",
        "es"
      ],
      [
        "Ġ",
        "end"
      ],
      [
        "ar",
        "ly"
      ],
      [
        "Ġas",
        "s"
      ],
      [
        "al",
        "s"
      ],
      [
        "om",
        "et"
      ],
      [
        "Ġo",
        "wn"
      ],
      [
        "w",
        "ard"
      ],
      [
        "ll",
        "ow"
      ],
      [
        "t",
        "s"
      ],
      [
        "ter",
        "s"
      ],
      [
        "Ġ",
        "["
      ],
      [
        "ib",
        "le"
      ],
      [
        "an",
        "ge"
      ],
      [
        "Ġst",
        "art"
      ],
      [
        "Ġl",
        "ong"
      ],
      [
        "Ġu",
        "se"
      ],
      [
        "u",
        "p"
      ],
      [
        "g",
        "r"
      ],
      [
        "âĢ",
        "Ķ"
      ],
      [
        "Ġgo",
        "vern"
      ],
      [
        "Ġbe",
        "fore"
      ],
      [
        "ĠN",
        "ew"
      ],
      [
        "Ġ",
        "ke"
      ],
      [
        "in",
        "ce"
      ],
      [
        "ĠA",
        "meric"
      ],
      [
        "u",
        "es"
      ],
      [
        "ou",
        "n"
      ],
      [
        "Ġf",
        "in"
      ],
      [
        "Ġre",
        "port"
      ],
      [
        "if",
        "e"
      ],
      [
        "Ġte",
        "am"
      ],
      [
        "b",
        "le"
      ],
      [
        "ol",
        "og"
      ],
      [
        "Ġst",
        "ud"
      ],
      [
        "Ġm",
        "ade"
      ],
      [
        "e",
        "k"
      ],
      [
        "l",
        "p"
      ],
      [
        "Ġwor",
        "ld"
      ],
      [
        "is",
        "m"
      ],
      [
        "re",
        "n"
      ],
      [
        "Ġsu",
        "ch"
      ],
      [
        "Ġs",
        "m"
      ],
      [
        "il",
        "ity"
      ],
      [
        "f",
        "ul"
      ],
      [
        ")",
        ","
      ],
      [
        "re",
        "st"
      ],
      [
        "Ġagain",
        "st"
      ],
      [
        "ers",
        "on"
      ],
      [
        "Ġgo",
        "ing"
      ],
      [
        "en",
        "er"
      ],
      [
        "u",
        "ally"
      ],
      [
        "Ġsu",
        "b"
      ],
      [
        "i",
        "x"
      ],
      [
        "rou",
        "p"
      ],
      [
        "c",
        "om"
      ],
      [
        "or",
        "k"
      ],
      [
        "I",
        "t"
      ],
      [
        "Ġe",
        "ff"
      ],
      [
        "Ġgo",
        "od"
      ],
      [
        "Ġs",
        "ur"
      ],
      [
        "it",
        "s"
      ],
      [
        "t",
        "ain"
      ],
      [
        "00",
        "0"
      ],
      [
        "ist",
        "s"
      ],
      [
        "Ġ",
        "ent"
      ],
      [
        "Ġa",
        "c"
      ],
      [
        "Ġpro",
        "v"
      ],
      [
        "Ġpo",
        "int"
      ],
      [
        "ill",
        "ion"
      ],
      [
        "Ġg",
        "u"
      ],
      [
        "..",
        "."
      ],
      [
        "Ġg",
        "ame"
      ],
      [
        "st",
        "em"
      ],
      [
        "y",
        "s"
      ],
      [
        "i",
        "er"
      ],
      [
        "ar",
        "s"
      ],
      [
        "us",
        "s"
      ],
      [
        "Ġs",
        "et"
      ],
      [
        "Ġwh",
        "ile"
      ],
      [
        "Ġhe",
        "lp"
      ],
      [
        "Ġle",
        "ad"
      ],
      [
        "Ġst",
        "ill"
      ],
      [
        "g",
        "an"
      ],
      [
        "im",
        "es"
      ],
      [
        ".",
        "<|"
      ],
      [
        "W",
        "e"
      ],
      [
        "Ġs",
        "ays"
      ],
      [
        "Ġg",
        "r"
      ],
      [
        "Ġin",
        "ter"
      ],
      [
        "an",
        "k"
      ],
      [
        "m",
        "s"
      ],
      [
        "a",
        "x"
      ],
      [
        "Ġm",
        "in"
      ],
      [
        "we",
        "en"
      ],
      [
        "Ġpro",
        "du"
      ],
      [
        "c",
        "ess"
      ],
      [
        "Ġin",
        "te"
      ],
      [
        "Ġt",
        "ake"
      ],
      [
        "Ġst",
        "r"
      ],
      [
        "Ġcon",
        "f"
      ],
      [
        "Ġ",
        "6"
      ],
      [
        "i",
        "o"
      ],
      [
        "c",
        "y"
      ],
      [
        "Ġc",
        "ol"
      ],
      [
        "e",
        "f"
      ],
      [
        "Ġs",
        "im"
      ],
      [
        "Ġo",
        "b"
      ],
      [
        "al",
        "k"
      ],
      [
        "a",
        "ir"
      ],
      [
        "sel",
        "f"
      ],
      [
        "Ġoff",
        "ic"
      ],
      [
        "e",
        "ver"
      ],
      [
        "Ġin",
        "st"
      ],
      [
        "Ġc",
        "r"
      ],
      [
        "u",
        "res"
      ],
      [
        "Ġdis",
        "c"
      ],
      [
        "Ġs",
        "ign"
      ],
      [
        "w",
        "ay"
      ],
      [
        "Ġn",
        "um"
      ],
      [
        "ar",
        "ch"
      ],
      [
        "Ġ",
        "ed"
      ],
      [
        "an",
        "y"
      ],
      [
        "Ġbet",
        "ween"
      ],
      [
        "Ġth",
        "ough"
      ],
      [
        "Ġs",
        "ame"
      ],
      [
        "Ġl",
        "aw"
      ],
      [
        "Ġdiff",
        "ere"
      ],
      [
        "at",
        "ch"
      ],
      [
        "a",
        "h"
      ],
      [
        "Ġ1",
        "0"
      ],
      [
        "Ġh",
        "igh"
      ],
      [
        "Ġo",
        "p"
      ],
      [
        "o",
        "ol"
      ],
      [
        "l",
        "ed"
      ],
      [
        "ut",
        "ion"
      ],
      [
        "g",
        "g"
      ],
      [
        "n",
        "er"
      ],
      [
        "Ġs",
        "omet"
      ],
      [
        "re",
        "ad"
      ],
      [
        "he",
        "s"
      ],
      [
        "Ġt",
        "er"
      ],
      [
        "am",
        "es"
      ],
      [
        "l",
        "and"
      ],
      [
        "Ġgovern",
        "ment"
      ],
      [
        "ĠR",
        "e"
      ],
      [
        "c",
        "ent"
      ],
      [
        "vel",
        "op"
      ],
      [
        "t",
        "ed"
      ],
      [
        "Ġth",
        "ree"
      ],
      [
        "-",
        "-"
      ],
      [
        "h",
        "ip"
      ],
      [
        "Ġs",
        "er"
      ],
      [
        "ou",
        "se"
      ],
      [
        "a",
        "ve"
      ],
      [
        "Ġf",
        "ound"
      ],
      [
        "Ġa",
        "round"
      ],
      [
        "Ġhe",
        "re"
      ],
      [
        "Ġtr",
        "ans"
      ],
      [
        "Ġr",
        "un"
      ],
      [
        "Ġre",
        "al"
      ],
      [
        "iv",
        "es"
      ],
      [
        "at",
        "her"
      ],
      [
        "Ġin",
        "s"
      ],
      [
        "Ġg",
        "roup"
      ],
      [
        "et",
        "s"
      ],
      [
        "t",
        "en"
      ],
      [
        ".",
        "["
      ],
      [
        "ĠL",
        "e"
      ],
      [
        "Ġsy",
        "stem"
      ],
      [
        "Ġre",
        "f"
      ],
      [
        "v",
        "ed"
      ],
      [
        "Ġm",
        "od"
      ],
      [
        "Ġex",
        "p"
      ],
      [
        "Ġc",
        "our"
      ],
      [
        "Ġre",
        "ally"
      ],
      [
        "ĠA",
        "l"
      ],
      [
        "Ġw",
        "om"
      ],
      [
        "v",
        "ing"
      ],
      [
        "Ġm",
        "em"
      ],
      [
        "er",
        "n"
      ],
      [
        "Ġsupp",
        "ort"
      ],
      [
        "Ġp",
        "ublic"
      ],
      [
        "Ġc",
        "ar"
      ],
      [
        "ce",
        "pt"
      ],
      [
        "c",
        "on"
      ],
      [
        "ĠY",
        "ou"
      ],
      [
        "Ġm",
        "ed"
      ],
      [
        "in",
        "s"
      ],
      [
        "al",
        "e"
      ],
      [
        "ĠA",
        "r"
      ],
      [
        "o",
        "h"
      ],
      [
        "a",
        "z"
      ],
      [
        "c",
        "i"
      ],
      [
        "ire",
        "ct"
      ],
      [
        "Ġus",
        "ed"
      ],
      [
        "Ġf",
        "act"
      ],
      [
        "p",
        "h"
      ],
      [
        "t",
        "on"
      ],
      [
        "Ġh",
        "and"
      ],
      [
        "al",
        "th"
      ],
      [
        "Ġf",
        "am"
      ],
      [
        "Ġs",
        "l"
      ],
      [
        "y",
        "ing"
      ],
      [
        "Ġre",
        "t"
      ],
      [
        "Ġs",
        "erv"
      ],
      [
        "Ġre",
        "p"
      ],
      [
        "Ġex",
        "per"
      ],
      [
        "Ġg",
        "reat"
      ],
      [
        "Ġc",
        "ur"
      ],
      [
        "en",
        "se"
      ],
      [
        "ic",
        "es"
      ],
      [
        "Ġha",
        "pp"
      ],
      [
        "c",
        "ial"
      ],
      [
        "Ġd",
        "ay"
      ],
      [
        "i",
        "vers"
      ],
      [
        "ĠC",
        "l"
      ],
      [
        "Ġ",
        "7"
      ],
      [
        "e",
        "ll"
      ],
      [
        "ĠC",
        "om"
      ],
      [
        "Ġex",
        "t"
      ],
      [
        "Ġc",
        "ap"
      ],
      [
        "Ġf",
        "r"
      ],
      [
        "Ġmon",
        "th"
      ],
      [
        "Ġre",
        "ad"
      ],
      [
        "ĠTr",
        "ump"
      ],
      [
        "Ġb",
        "oth"
      ],
      [
        "Ġf",
        "ind"
      ],
      [
        "in",
        "es"
      ],
      [
        "Ġd",
        "uring"
      ],
      [
        "ĠThe",
        "y"
      ],
      [
        "Ġl",
        "it"
      ],
      [
        "Ġd",
        "et"
      ],
      [
        "p",
        "r"
      ],
      [
        "is",
        "ion"
      ],
      [
        "m",
        "ed"
      ],
      [
        "ĠA",
        "s"
      ],
      [
        "Ġa",
        "ut"
      ],
      [
        "ul",
        "ar"
      ],
      [
        "t",
        "he"
      ],
      [
        "Ġb",
        "ig"
      ],
      [
        "Ġde",
        "velop"
      ],
      [
        "Ġp",
        "erson"
      ],
      [
        "Ġto",
        "ld"
      ],
      [
        "Ġwe",
        "ek"
      ],
      [
        "Ġfo",
        "llow"
      ],
      [
        "m",
        "in"
      ],
      [
        "ag",
        "es"
      ],
      [
        "a",
        "red"
      ],
      [
        "ĠI",
        "s"
      ],
      [
        "ĠS",
        "h"
      ],
      [
        "e",
        "x"
      ],
      [
        "ak",
        "es"
      ],
      [
        "Ġc",
        "ent"
      ],
      [
        "Ġw",
        "ar"
      ],
      [
        "ord",
        "ing"
      ],
      [
        "Ġis",
        "s"
      ],
      [
        "ic",
        "ally"
      ],
      [
        "Ġs",
        "ince"
      ],
      [
        "as",
        "h"
      ],
      [
        "v",
        "es"
      ],
      [
        "Ġc",
        "re"
      ],
      [
        "ort",
        "h"
      ],
      [
        "Ġf",
        "ew"
      ],
      [
        "W",
        "h"
      ],
      [
        "Ġle",
        "g"
      ],
      [
        "Ġ",
        "8"
      ],
      [
        "Ġpol",
        "it"
      ],
      [
        "Ġres",
        "p"
      ],
      [
        "Ġb",
        "o"
      ],
      [
        "Ġo",
        "pp"
      ],
      [
        "a",
        "j"
      ],
      [
        "e",
        "red"
      ],
      [
        "Ġex",
        "pl"
      ],
      [
        "Ġbel",
        "ie"
      ],
      [
        "re",
        "nt"
      ],
      [
        "ch",
        "ool"
      ],
      [
        "Ġcont",
        "in"
      ],
      [
        "Ġl",
        "ot"
      ],
      [
        "g",
        "et"
      ],
      [
        "i",
        "et"
      ],
      [
        "Ġc",
        "amp"
      ],
      [
        "Ġre",
        "qu"
      ],
      [
        "Ġto",
        "o"
      ],
      [
        "r",
        "ic"
      ],
      [
        "Ġan",
        "other"
      ],
      [
        "Ġc",
        "le"
      ],
      [
        "Ġ",
        "0"
      ],
      [
        "Ġsomet",
        "hing"
      ],
      [
        "Ġc",
        "or"
      ],
      [
        "Ġp",
        "ut"
      ],
      [
        "Ġf",
        "il"
      ],
      [
        "2",
        "0"
      ],
      [
        "at",
        "a"
      ],
      [
        "ent",
        "ion"
      ],
      [
        "Ġg",
        "ener"
      ],
      [
        "Ġpl",
        "an"
      ],
      [
        "Ġv",
        "ot"
      ],
      [
        "Ġinv",
        "est"
      ],
      [
        "d",
        "er"
      ],
      [
        "ar",
        "l"
      ],
      [
        "Ġdiffere",
        "nt"
      ],
      [
        "Ġl",
        "oc"
      ],
      [
        "b",
        "ers"
      ],
      [
        "ro",
        "ss"
      ],
      [
        "ĠD",
        "e"
      ],
      [
        "Ġs",
        "oc"
      ],
      [
        "Ġl",
        "ife"
      ],
      [
        "Ġin",
        "f"
      ],
      [
        "Ġre",
        "le"
      ],
      [
        "ĠI",
        "f"
      ],
      [
        "u",
        "c"
      ],
      [
        "Ġp",
        "ower"
      ],
      [
        "ĠF",
        "r"
      ],
      [
        "iz",
        "ed"
      ],
      [
        "Ġhe",
        "ad"
      ],
      [
        "Ġas",
        "k"
      ],
      [
        "Ġc",
        "he"
      ],
      [
        "i",
        "k"
      ],
      [
        "ut",
        "e"
      ],
      [
        "Ġch",
        "ild"
      ],
      [
        "Th",
        "is"
      ],
      [
        "Ġp",
        "oss"
      ],
      [
        "Ġcomm",
        "un"
      ],
      [
        "th",
        "ing"
      ],
      [
        "ie",
        "ld"
      ],
      [
        "Ġth",
        "ings"
      ],
      [
        "n",
        "ess"
      ],
      [
        "Ġch",
        "ar"
      ],
      [
        "Ġcom",
        "e"
      ],
      [
        "Ġf",
        "ar"
      ],
      [
        "i",
        "ent"
      ],
      [
        "Ġp",
        "ass"
      ],
      [
        "Ġar",
        "t"
      ],
      [
        "i",
        "ence"
      ],
      [
        "ant",
        "s"
      ],
      [
        "Ġm",
        "ight"
      ],
      [
        "od",
        "y"
      ],
      [
        "Ġad",
        "v"
      ],
      [
        "it",
        "al"
      ],
      [
        "Ġe",
        "ach"
      ],
      [
        "s",
        "on"
      ],
      [
        "Ġm",
        "et"
      ],
      [
        "Ġne",
        "xt"
      ],
      [
        "Ġm",
        "ark"
      ],
      [
        "Ġ",
        "9"
      ],
      [
        "Ġqu",
        "est"
      ],
      [
        "re",
        "t"
      ],
      [
        "Ġb",
        "us"
      ],
      [
        "Ġsec",
        "ond"
      ],
      [
        "Ġne",
        "ver"
      ],
      [
        "Ġde",
        "p"
      ],
      [
        "Ġp",
        "ost"
      ],
      [
        "Ġg",
        "ot"
      ],
      [
        "in",
        "ess"
      ],
      [
        "Ġb",
        "est"
      ],
      [
        "v",
        "iew"
      ],
      [
        "ĠU",
        "S"
      ],
      [
        "ĠâĢ",
        "ĺ"
      ],
      [
        "Ġd",
        "irect"
      ],
      [
        "Ġfe",
        "el"
      ],
      [
        "Ġop",
        "en"
      ],
      [
        "Ġall",
        "ow"
      ],
      [
        "Ġper",
        "cent"
      ],
      [
        "ĠA",
        "n"
      ],
      [
        "iz",
        "e"
      ],
      [
        "Ġcon",
        "c"
      ],
      [
        "r",
        "at"
      ],
      [
        "ĠP",
        "ro"
      ],
      [
        "Ġse",
        "em"
      ],
      [
        "i",
        "red"
      ],
      [
        "u",
        "g"
      ],
      [
        "ĠTh",
        "at"
      ],
      [
        "Ġh",
        "ome"
      ],
      [
        "Ġde",
        "m"
      ],
      [
        "Ġm",
        "illion"
      ],
      [
        "n",
        "ce"
      ],
      [
        "os",
        "ed"
      ],
      [
        "ch",
        "n"
      ],
      [
        "or",
        "n"
      ],
      [
        "Ġ",
        "'"
      ],
      [
        "Ġ",
        "."
      ],
      [
        "ĠF",
        "or"
      ],
      [
        "p",
        "le"
      ],
      [
        "c",
        "o"
      ],
      [
        "gr",
        "am"
      ],
      [
        "l",
        "ing"
      ],
      [
        "Ġd",
        "ist"
      ],
      [
        "m",
        "ber"
      ],
      [
        "Ġinc",
        "re"
      ],
      [
        "Ġpl",
        "ace"
      ],
      [
        "Ġp",
        "ri"
      ],
      [
        "Ġinclud",
        "ing"
      ],
      [
        "Ġa",
        "v"
      ],
      [
        "r",
        "al"
      ],
      [
        "ĠR",
        "ep"
      ],
      [
        "l",
        "ess"
      ],
      [
        "Ġcont",
        "ro"
      ],
      [
        "Ġh",
        "ard"
      ],
      [
        "Ġres",
        "ult"
      ],
      [
        "ate",
        "ly"
      ],
      [
        "Ġcomp",
        "le"
      ],
      [
        "Ġnum",
        "ber"
      ],
      [
        "Ġc",
        "are"
      ],
      [
        "con",
        "om"
      ],
      [
        "Ġh",
        "um"
      ],
      [
        "Ġim",
        "port"
      ],
      [
        "l",
        "ine"
      ],
      [
        "Ġ",
        "ide"
      ],
      [
        "Ġpro",
        "ble"
      ],
      [
        "ar",
        "n"
      ],
      [
        "a",
        "im"
      ],
      [
        "ĠB",
        "l"
      ],
      [
        "Ġto",
        "p"
      ],
      [
        "Ġin",
        "form"
      ],
      [
        "Ġcount",
        "ry"
      ],
      [
        "Ġe",
        "l"
      ],
      [
        "ri",
        "end"
      ],
      [
        "one",
        "y"
      ],
      [
        "Ġse",
        "ason"
      ],
      [
        "Ġrec",
        "ent"
      ],
      [
        "e",
        "ad"
      ],
      [
        "Ġf",
        "our"
      ],
      [
        "ab",
        "ly"
      ],
      [
        "Ġbet",
        "ter"
      ],
      [
        "B",
        "ut"
      ],
      [
        "Ġm",
        "il"
      ],
      [
        "Ġg",
        "l"
      ],
      [
        "Ġt",
        "urn"
      ],
      [
        "Ġwith",
        "out"
      ],
      [
        "Ġbu",
        "ild"
      ],
      [
        "u",
        "ro"
      ],
      [
        "is",
        "hed"
      ],
      [
        "w",
        "ays"
      ],
      [
        "Ġt",
        "ri"
      ],
      [
        "r",
        "act"
      ],
      [
        "Ġinte",
        "rest"
      ],
      [
        "Ġb",
        "ro"
      ],
      [
        "Ġan",
        "n"
      ],
      [
        "Ġlit",
        "tle"
      ],
      [
        "Ġm",
        "ov"
      ],
      [
        "Ġapp",
        "ro"
      ],
      [
        "Ġd",
        "r"
      ],
      [
        "Ġl",
        "ess"
      ],
      [
        "ĠI",
        "nd"
      ],
      [
        "Ġ",
        "Z"
      ],
      [
        "Ġle",
        "t"
      ],
      [
        "g",
        "y"
      ],
      [
        "1",
        "0"
      ],
      [
        "Ġcall",
        "ed"
      ],
      [
        "Ġst",
        "and"
      ],
      [
        "r",
        "ation"
      ],
      [
        "am",
        "a"
      ],
      [
        "Ġre",
        "st"
      ],
      [
        "a",
        "pp"
      ],
      [
        "Ġc",
        "ase"
      ],
      [
        "is",
        "ed"
      ],
      [
        "Ġatt",
        "ack"
      ],
      [
        "Ġpart",
        "ic"
      ],
      [
        "Ġm",
        "ove"
      ],
      [
        "er",
        "ing"
      ],
      [
        "t",
        "t"
      ],
      [
        "Ġbe",
        "h"
      ],
      [
        "Ġus",
        "ing"
      ],
      [
        "Ġp",
        "ay"
      ],
      [
        "Ġwom",
        "en"
      ],
      [
        "Ġf",
        "ull"
      ],
      [
        "Ġke",
        "ep"
      ],
      [
        "_",
        "_"
      ],
      [
        "Ġpre",
        "v"
      ],
      [
        "Ġp",
        "op"
      ],
      [
        "re",
        "m"
      ],
      [
        "en",
        "cy"
      ],
      [
        "Ġm",
        "ain"
      ],
      [
        "Ġle",
        "ft"
      ],
      [
        "aj",
        "or"
      ],
      [
        "le",
        "g"
      ],
      [
        "an",
        "n"
      ],
      [
        "Ġf",
        "un"
      ],
      [
        "Ġdid",
        "n"
      ],
      [
        "Ġs",
        "chool"
      ],
      [
        "t",
        "o"
      ],
      [
        "Ġw",
        "in"
      ],
      [
        "in",
        "a"
      ],
      [
        "ĠThe",
        "re"
      ],
      [
        "at",
        "ure"
      ],
      [
        "Ġt",
        "est"
      ],
      [
        "Ġpro",
        "gram"
      ],
      [
        "Ġnew",
        "s"
      ],
      [
        "ain",
        "s"
      ],
      [
        "u",
        "ck"
      ],
      [
        "er",
        "tain"
      ],
      [
        "Ġpol",
        "ice"
      ],
      [
        "H",
        "e"
      ],
      [
        "Ġe",
        "conom"
      ],
      [
        "olog",
        "y"
      ],
      [
        "Ġfor",
        "m"
      ],
      [
        "Ġs",
        "it"
      ],
      [
        "Ġeff",
        "ect"
      ],
      [
        "od",
        "e"
      ],
      [
        "b",
        "e"
      ],
      [
        "a",
        "ign"
      ],
      [
        "Ġcomp",
        "any"
      ],
      [
        "Ġd",
        "ri"
      ],
      [
        "oh",
        "n"
      ],
      [
        "in",
        "al"
      ],
      [
        "Ġw",
        "rit"
      ],
      [
        "ĠAmeric",
        "an"
      ],
      [
        "ar",
        "ge"
      ],
      [
        "iv",
        "ing"
      ],
      [
        "ivers",
        "ity"
      ],
      [
        "m",
        "it"
      ],
      [
        "id",
        "ed"
      ],
      [
        "read",
        "y"
      ],
      [
        "Ġre",
        "ce"
      ],
      [
        "Ġcur",
        "rent"
      ],
      [
        "Ġd",
        "ata"
      ],
      [
        "in",
        "ed"
      ],
      [
        "h",
        "or"
      ],
      [
        "Ġp",
        "os"
      ],
      [
        "Ġsm",
        "all"
      ],
      [
        "i",
        "ver"
      ],
      [
        "Ġv",
        "al"
      ],
      [
        "ir",
        "d"
      ],
      [
        "Ġpro",
        "cess"
      ],
      [
        "'",
        "re"
      ],
      [
        "Ġb",
        "ook"
      ],
      [
        "g",
        "er"
      ],
      [
        "Ġ-",
        "-"
      ],
      [
        "r",
        "ap"
      ],
      [
        "ĠUn",
        "ited"
      ],
      [
        "Ġl",
        "ist"
      ],
      [
        "Ġp",
        "rom"
      ],
      [
        "Ġpres",
        "ident"
      ],
      [
        "us",
        "ed"
      ],
      [
        "Ġte",
        "chn"
      ],
      [
        "Ġe",
        "as"
      ],
      [
        "i",
        "ans"
      ],
      [
        "Ġle",
        "vel"
      ],
      [
        "at",
        "ter"
      ],
      [
        "ĠS",
        "o"
      ],
      [
        "Ġf",
        "ree"
      ],
      [
        "pl",
        "oy"
      ],
      [
        "Ġch",
        "ange"
      ],
      [
        "Ġs",
        "ol"
      ],
      [
        "Ġh",
        "ist"
      ],
      [
        "Ġu",
        "nt"
      ],
      [
        "Ġal",
        "ways"
      ],
      [
        "Ġm",
        "oney"
      ],
      [
        "re",
        "en"
      ],
      [
        "Ġal",
        "ready"
      ],
      [
        "Ġcamp",
        "aign"
      ],
      [
        "Ġl",
        "ater"
      ],
      [
        "Ġst",
        "ory"
      ],
      [
        "Ġpro",
        "f"
      ],
      [
        "c",
        "l"
      ],
      [
        "Ġoffic",
        "ial"
      ],
      [
        "ru",
        "ct"
      ],
      [
        "ĠS",
        "he"
      ],
      [
        "Ġj",
        "ob"
      ],
      [
        "Ġex",
        "pect"
      ],
      [
        "Ġb",
        "re"
      ],
      [
        "a",
        "ff"
      ],
      [
        "r",
        "on"
      ],
      [
        "w",
        "it"
      ],
      [
        "Ġwh",
        "y"
      ],
      [
        "Ġhe",
        "alth"
      ],
      [
        "ard",
        "s"
      ],
      [
        "Ġcl",
        "ass"
      ],
      [
        "Ġpro",
        "ject"
      ],
      [
        "Ġcl",
        "aim"
      ],
      [
        "Ġre",
        "se"
      ],
      [
        "Ġt",
        "alk"
      ],
      [
        "Ġab",
        "le"
      ],
      [
        "ĠB",
        "e"
      ],
      [
        "Ġm",
        "ajor"
      ],
      [
        "Ġch",
        "ang"
      ],
      [
        "ur",
        "al"
      ],
      [
        "iv",
        "en"
      ],
      [
        "Ġor",
        "gan"
      ],
      [
        "Ġk",
        "ill"
      ],
      [
        "Ġbus",
        "iness"
      ],
      [
        "Ġth",
        "ing"
      ],
      [
        "Ġspe",
        "c"
      ],
      [
        "ĠP",
        "h"
      ],
      [
        "Ġo",
        "per"
      ],
      [
        "Ġc",
        "ity"
      ],
      [
        "Ġ",
        "est"
      ],
      [
        "as",
        "es"
      ],
      [
        "Ġs",
        "k"
      ],
      [
        "le",
        "ction"
      ],
      [
        "Ġt",
        "y"
      ],
      [
        "ĠH",
        "ow"
      ],
      [
        "Ġp",
        "ast"
      ],
      [
        "st",
        "and"
      ],
      [
        "he",
        "re"
      ],
      [
        "ur",
        "s"
      ],
      [
        "an",
        "c"
      ],
      [
        "iss",
        "ion"
      ],
      [
        "ou",
        "th"
      ],
      [
        "Ġ",
        "Q"
      ],
      [
        "Ġa",
        "way"
      ],
      [
        "end",
        "ing"
      ],
      [
        "Ġv",
        "iew"
      ],
      [
        "Ġo",
        "ld"
      ],
      [
        "s",
        "ide"
      ],
      [
        "Ġinform",
        "ation"
      ],
      [
        "ne",
        "y"
      ],
      [
        "Ġhapp",
        "en"
      ],
      [
        "ĠG",
        "o"
      ],
      [
        "Ġv",
        "is"
      ],
      [
        "ur",
        "ity"
      ],
      [
        "Ġm",
        "en"
      ],
      [
        "Ġc",
        "ost"
      ],
      [
        "Ġp",
        "at"
      ],
      [
        "Ġst",
        "re"
      ],
      [
        "o",
        "ot"
      ],
      [
        "ur",
        "y"
      ],
      [
        "i",
        "or"
      ],
      [
        "s",
        "c"
      ],
      [
        "Ġm",
        "ust"
      ],
      [
        "ain",
        "ed"
      ],
      [
        "Ġdoes",
        "n"
      ],
      [
        "Ġimport",
        "ant"
      ],
      [
        "Ġdes",
        "ign"
      ],
      [
        "ĠR",
        "uss"
      ],
      [
        "ĠC",
        "an"
      ],
      [
        "Ġle",
        "ast"
      ],
      [
        "id",
        "es"
      ],
      [
        "ĠS",
        "e"
      ],
      [
        "pt",
        "ion"
      ],
      [
        "Ġfam",
        "ily"
      ],
      [
        "Ġte",
        "ll"
      ],
      [
        "ĠA",
        "d"
      ],
      [
        "Ġh",
        "op"
      ],
      [
        "ac",
        "y"
      ],
      [
        "Ġ1",
        "8"
      ],
      [
        "Ġd",
        "ays"
      ],
      [
        "le",
        "y"
      ],
      [
        "Ġa",
        "ff"
      ],
      [
        "ĠO",
        "b"
      ],
      [
        "res",
        "ident"
      ],
      [
        "u",
        "red"
      ],
      [
        "Ġm",
        "aking"
      ],
      [
        "Ġc",
        "ame"
      ],
      [
        "id",
        "er"
      ],
      [
        "Ġde",
        "al"
      ],
      [
        "Ġk",
        "ind"
      ],
      [
        "Ġcon",
        "st"
      ],
      [
        "Ġed",
        "it"
      ],
      [
        "Ġg",
        "row"
      ],
      [
        "ĠS",
        "p"
      ],
      [
        "Ġen",
        "ough"
      ],
      [
        "o",
        "ad"
      ],
      [
        "Ġf",
        "riend"
      ],
      [
        "Ġv",
        "ar"
      ],
      [
        "amp",
        "le"
      ],
      [
        "b",
        "y"
      ],
      [
        "er",
        "al"
      ],
      [
        "al",
        "ity"
      ],
      [
        "r",
        "ist"
      ],
      [
        "cc",
        "ess"
      ],
      [
        "Ġpol",
        "ic"
      ],
      [
        "Ġe",
        "lect"
      ],
      [
        "ĠJ",
        "ohn"
      ],
      [
        "pp",
        "ed"
      ],
      [
        "Ġwork",
        "ing"
      ],
      [
        "o",
        "x"
      ],
      [
        "Ġm",
        "ar"
      ],
      [
        "r",
        "or"
      ],
      [
        "are",
        "nt"
      ],
      [
        "Ġunt",
        "il"
      ],
      [
        "is",
        "ing"
      ],
      [
        "el",
        "s"
      ],
      [
        "ri",
        "es"
      ],
      [
        "Ġto",
        "ok"
      ],
      [
        "Ġrec",
        "ord"
      ],
      [
        "Ġpolit",
        "ical"
      ],
      [
        "Ġ1",
        "2"
      ],
      [
        "Ġl",
        "arge"
      ],
      [
        "iv",
        "ed"
      ],
      [
        "au",
        "gh"
      ],
      [
        "Ġt",
        "ax"
      ],
      [
        "at",
        "or"
      ],
      [
        "Ġl",
        "ine"
      ],
      [
        "ĠM",
        "ar"
      ],
      [
        "Ġin",
        "tern"
      ],
      [
        "A",
        "s"
      ],
      [
        "ion",
        "al"
      ],
      [
        "g",
        "u"
      ],
      [
        "Ġfor",
        "mer"
      ],
      [
        "ĠRep",
        "ublic"
      ],
      [
        "Ġde",
        "l"
      ],
      [
        "if",
        "ied"
      ],
      [
        "Ġl",
        "a"
      ],
      [
        "ain",
        "ing"
      ],
      [
        "Ġ1",
        "5"
      ],
      [
        "on",
        "y"
      ],
      [
        "ĠS",
        "y"
      ],
      [
        "Ġ",
        "es"
      ],
      [
        "Ġbec",
        "ome"
      ],
      [
        "us",
        "h"
      ],
      [
        "en",
        "n"
      ],
      [
        "I",
        "f"
      ],
      [
        "oc",
        "rat"
      ],
      [
        "is",
        "ter"
      ],
      [
        "Ġ",
        "ve"
      ],
      [
        "w",
        "ork"
      ],
      [
        "Ġw",
        "on"
      ],
      [
        "Ġacc",
        "ording"
      ],
      [
        "ar",
        "ing"
      ],
      [
        "S",
        "t"
      ],
      [
        "i",
        "ber"
      ],
      [
        "Ġv",
        "ide"
      ],
      [
        "al",
        "f"
      ],
      [
        "ĠM",
        "c"
      ],
      [
        "Ġact",
        "ually"
      ],
      [
        "Ġf",
        "und"
      ],
      [
        "ĠE",
        "uro"
      ],
      [
        "Ġf",
        "ore"
      ],
      [
        "Ġg",
        "ive"
      ],
      [
        "Ġde",
        "b"
      ],
      [
        "y",
        "ear"
      ],
      [
        "Ġde",
        "v"
      ],
      [
        "ap",
        "s"
      ],
      [
        "Ġ19",
        "9"
      ],
      [
        "i",
        "ol"
      ],
      [
        "Ġme",
        "an"
      ],
      [
        "b",
        "s"
      ],
      [
        "w",
        "are"
      ],
      [
        "Ġhum",
        "an"
      ],
      [
        "Ġof",
        "ten"
      ],
      [
        "Ġpro",
        "te"
      ],
      [
        "w",
        "h"
      ],
      [
        "Ġse",
        "ver"
      ],
      [
        "Ġr",
        "a"
      ],
      [
        "m",
        "ost"
      ],
      [
        "Ġb",
        "as"
      ],
      [
        "ĠD",
        "em"
      ],
      [
        "Ġt",
        "imes"
      ],
      [
        "E",
        "R"
      ],
      [
        "ot",
        "t"
      ],
      [
        "Ġa",
        "ir"
      ],
      [
        "Ġf",
        "ac"
      ],
      [
        "Ġg",
        "ames"
      ],
      [
        "c",
        "hed"
      ],
      [
        "Ġchild",
        "ren"
      ],
      [
        "an",
        "e"
      ],
      [
        "ut",
        "ure"
      ],
      [
        "Ġmark",
        "et"
      ],
      [
        "Ġe",
        "ver"
      ],
      [
        "Ġb",
        "it"
      ],
      [
        "at",
        "s"
      ],
      [
        "ĠP",
        "l"
      ],
      [
        "ĠS",
        "c"
      ],
      [
        "Ġplay",
        "ers"
      ],
      [
        "Ġchar",
        "ac"
      ],
      [
        "qu",
        "e"
      ],
      [
        "ĠM",
        "ay"
      ],
      [
        "g",
        "in"
      ],
      [
        "ĠC",
        "on"
      ],
      [
        "is",
        "on"
      ],
      [
        "Ġn",
        "ame"
      ],
      [
        "1",
        "1"
      ],
      [
        "ic",
        "le"
      ],
      [
        "Ġ",
        "="
      ],
      [
        "ĠY",
        "ork"
      ],
      [
        "Ġper",
        "form"
      ],
      [
        "The",
        "re"
      ],
      [
        "it",
        "her"
      ],
      [
        "ot",
        "s"
      ],
      [
        "te",
        "m"
      ],
      [
        "Ġwor",
        "d"
      ],
      [
        "iz",
        "ation"
      ],
      [
        "o",
        "int"
      ],
      [
        "art",
        "ment"
      ],
      [
        "Ġsever",
        "al"
      ],
      [
        "Ġw",
        "r"
      ],
      [
        "Ġw",
        "ater"
      ],
      [
        "Ġmil",
        "it"
      ],
      [
        "Ġp",
        "ress"
      ],
      [
        "Ġor",
        "der"
      ],
      [
        "id",
        "d"
      ],
      [
        "Ġpro",
        "p"
      ],
      [
        "Ġret",
        "urn"
      ],
      [
        "b",
        "r"
      ],
      [
        "Ġe",
        "arly"
      ],
      [
        "ĠO",
        "r"
      ],
      [
        "ver",
        "t"
      ],
      [
        "ĠA",
        "ll"
      ],
      [
        "Ġc",
        "rit"
      ],
      [
        "Ġapp",
        "ear"
      ],
      [
        "Ġdo",
        "ing"
      ],
      [
        "Ġwhe",
        "ther"
      ],
      [
        "Ġn",
        "ight"
      ],
      [
        "Ġme",
        "et"
      ],
      [
        "Ġsoc",
        "ial"
      ],
      [
        "Ġha",
        "ving"
      ],
      [
        "ak",
        "en"
      ],
      [
        "our",
        "n"
      ],
      [
        "Ġto",
        "day"
      ],
      [
        "i",
        "ally"
      ],
      [
        "ious",
        "ly"
      ],
      [
        "Ġmed",
        "ia"
      ],
      [
        "ĠP",
        "resident"
      ],
      [
        "f",
        "or"
      ],
      [
        "ro",
        "p"
      ],
      [
        "Ġw",
        "ent"
      ],
      [
        "ĠM",
        "r"
      ],
      [
        "Ġf",
        "ive"
      ],
      [
        "i",
        "am"
      ],
      [
        "Ġyou",
        "ng"
      ],
      [
        "Ġse",
        "en"
      ],
      [
        "Ġs",
        "ing"
      ],
      [
        "Ġe",
        "qu"
      ],
      [
        "ĠA",
        "t"
      ],
      [
        "un",
        "e"
      ],
      [
        "Ġquest",
        "ion"
      ],
      [
        "id",
        "ence"
      ],
      [
        "ĠC",
        "ol"
      ],
      [
        "Ġev",
        "ent"
      ],
      [
        "and",
        "s"
      ],
      [
        "Ġlike",
        "ly"
      ],
      [
        "Ġsh",
        "ort"
      ],
      [
        "or",
        "ies"
      ],
      [
        "Ġse",
        "x"
      ],
      [
        "Ġcontro",
        "l"
      ],
      [
        "end",
        "ed"
      ],
      [
        "Ġinv",
        "ol"
      ],
      [
        "Ġs",
        "ide"
      ],
      [
        "Ġh",
        "our"
      ],
      [
        "im",
        "ate"
      ],
      [
        "ra",
        "ft"
      ],
      [
        "Ġal",
        "ong"
      ],
      [
        "5",
        "0"
      ],
      [
        "al",
        "d"
      ],
      [
        "Ġsu",
        "re"
      ],
      [
        "ĠSt",
        "ate"
      ],
      [
        "Ġan",
        "t"
      ],
      [
        "en",
        "g"
      ],
      [
        "ag",
        "ue"
      ],
      [
        "A",
        "nd"
      ],
      [
        "Ġf",
        "ight"
      ],
      [
        "Ġc",
        "ertain"
      ],
      [
        "Ġp",
        "ot"
      ],
      [
        "ĠSt",
        "ates"
      ],
      [
        "Ġsu",
        "ccess"
      ],
      [
        "ĠEuro",
        "pe"
      ],
      [
        "Ġcour",
        "se"
      ],
      [
        "Ġb",
        "en"
      ],
      [
        "Ġmonth",
        "s"
      ],
      [
        "ur",
        "ch"
      ],
      [
        "Ġd",
        "one"
      ],
      [
        "ĠC",
        "o"
      ],
      [
        "Ġ",
        "]"
      ],
      [
        "u",
        "ff"
      ],
      [
        "i",
        "um"
      ],
      [
        "Ġ201",
        "6"
      ],
      [
        "Ġo",
        "cc"
      ],
      [
        "1",
        "9"
      ],
      [
        "it",
        "ing"
      ],
      [
        "Ġposs",
        "ible"
      ],
      [
        "Ġf",
        "uture"
      ],
      [
        "st",
        "er"
      ],
      [
        "Ġdes",
        "c"
      ],
      [
        "b",
        "all"
      ],
      [
        "Ġact",
        "iv"
      ],
      [
        "l",
        "er"
      ],
      [
        "Ġam",
        "ong"
      ],
      [
        "ent",
        "ial"
      ],
      [
        "Ġ",
        "vers"
      ],
      [
        "Ġon",
        "ce"
      ],
      [
        "Ġen",
        "g"
      ],
      [
        "Ġmem",
        "bers"
      ],
      [
        "Ġex",
        "ample"
      ],
      [
        "s",
        "h"
      ],
      [
        "Ġ",
        "/"
      ],
      [
        "Ġask",
        "ed"
      ],
      [
        "o",
        "ber"
      ],
      [
        "ub",
        "l"
      ],
      [
        "le",
        "t"
      ],
      [
        "ĠS",
        "te"
      ],
      [
        "Ġch",
        "o"
      ],
      [
        "Ġav",
        "ail"
      ],
      [
        "g",
        "ress"
      ],
      [
        "Ġh",
        "old"
      ],
      [
        "ort",
        "un"
      ],
      [
        "ĠB",
        "r"
      ],
      [
        "Ġproble",
        "m"
      ],
      [
        "ver",
        "age"
      ],
      [
        "Ġinvest",
        "ig"
      ],
      [
        "iv",
        "id"
      ],
      [
        "or",
        "ld"
      ],
      [
        "Ġwith",
        "in"
      ],
      [
        "Ġ1",
        "1"
      ],
      [
        "Ġprodu",
        "ct"
      ],
      [
        "re",
        "w"
      ],
      [
        "Ġaut",
        "hor"
      ],
      [
        "ĠUn",
        "iversity"
      ],
      [
        "p",
        "or"
      ],
      [
        "Ġkn",
        "own"
      ],
      [
        "Ġy",
        "et"
      ],
      [
        "Ġloc",
        "al"
      ],
      [
        "Ġv",
        "iol"
      ],
      [
        "Ġpri",
        "v"
      ],
      [
        "Ġann",
        "oun"
      ],
      [
        "l",
        "f"
      ],
      [
        "n",
        "ect"
      ],
      [
        "gg",
        "est"
      ],
      [
        "Ġg",
        "iven"
      ],
      [
        "b",
        "ook"
      ],
      [
        "it",
        "ive"
      ],
      [
        "Ġm",
        "akes"
      ],
      [
        "Ġme",
        "ans"
      ],
      [
        "Ġunder",
        "stand"
      ],
      [
        "Ġf",
        "ail"
      ],
      [
        "ul",
        "ation"
      ],
      [
        "Y",
        "ou"
      ],
      [
        "on",
        "es"
      ],
      [
        "u",
        "ed"
      ],
      [
        "Ġac",
        "ross"
      ],
      [
        "ĠN",
        "o"
      ],
      [
        "ĠO",
        "n"
      ],
      [
        "ens",
        "ive"
      ],
      [
        "Ġl",
        "im"
      ],
      [
        "ĠH",
        "ouse"
      ],
      [
        "ore",
        "d"
      ],
      [
        "Ġsu",
        "ggest"
      ],
      [
        "ĠW",
        "hen"
      ],
      [
        "Ġor",
        "ig"
      ],
      [
        "oc",
        "i"
      ],
      [
        "Ġthough",
        "t"
      ],
      [
        "b",
        "ack"
      ],
      [
        "in",
        "c"
      ],
      [
        "Ġl",
        "ight"
      ],
      [
        "Ġstr",
        "ong"
      ],
      [
        "Ġn",
        "on"
      ],
      [
        "a",
        "f"
      ],
      [
        "Ġpro",
        "b"
      ],
      [
        "1",
        "2"
      ],
      [
        "m",
        "y"
      ],
      [
        "Ġre",
        "ason"
      ],
      [
        "ed",
        "eral"
      ],
      [
        "e",
        "e"
      ],
      [
        "Ġcommun",
        "ity"
      ],
      [
        "ĠOb",
        "ama"
      ],
      [
        "Ġ",
        "&"
      ],
      [
        "ag",
        "ed"
      ],
      [
        "iet",
        "y"
      ],
      [
        "Ġs",
        "ent"
      ],
      [
        "Ġp",
        "ar"
      ],
      [
        "n",
        "ot"
      ],
      [
        "Ġbelie",
        "ve"
      ],
      [
        "Ġreport",
        "ed"
      ],
      [
        "Ġcl",
        "ose"
      ],
      [
        "Ġcon",
        "d"
      ],
      [
        "it",
        "ions"
      ],
      [
        "an",
        "ces"
      ],
      [
        "ĠS",
        "en"
      ],
      [
        "Ġother",
        "s"
      ],
      [
        "Ġc",
        "ut"
      ],
      [
        "Ġ",
        ","
      ],
      [
        "Ġn",
        "et"
      ],
      [
        "ort",
        "s"
      ],
      [
        "Ġind",
        "ust"
      ],
      [
        "Ġfollow",
        "ing"
      ],
      [
        "Ġ201",
        "5"
      ],
      [
        "Ġvide",
        "o"
      ],
      [
        "Ġs",
        "our"
      ],
      [
        "Ġf",
        "oc"
      ],
      [
        "Ġstart",
        "ed"
      ],
      [
        "Ġavail",
        "able"
      ],
      [
        "ur",
        "ther"
      ],
      [
        "c",
        "her"
      ],
      [
        "as",
        "hing"
      ],
      [
        "Ġget",
        "ting"
      ],
      [
        "en",
        "e"
      ],
      [
        "Ġl",
        "ove"
      ],
      [
        "ĠE",
        "x"
      ],
      [
        "ĠT",
        "e"
      ],
      [
        "ĠDem",
        "ocrat"
      ],
      [
        "m",
        "ing"
      ],
      [
        "Ġl",
        "and"
      ],
      [
        "Ġb",
        "ased"
      ],
      [
        "Ġ",
        "X"
      ],
      [
        "Ġpart",
        "y"
      ],
      [
        "ĠCh",
        "rist"
      ],
      [
        "Ġ",
        "ident"
      ],
      [
        "'",
        "ve"
      ],
      [
        "Ġl",
        "ow"
      ],
      [
        "ĠC",
        "ent"
      ],
      [
        "Ġc",
        "reat"
      ],
      [
        "er",
        "t"
      ],
      [
        "Ġ3",
        "0"
      ],
      [
        "Ġsa",
        "f"
      ],
      [
        "as",
        "ter"
      ],
      [
        "Ġser",
        "ies"
      ],
      [
        "F",
        "or"
      ],
      [
        "u",
        "ly"
      ],
      [
        "Ġn",
        "ational"
      ],
      [
        "Ġadd",
        "ed"
      ],
      [
        "os",
        "p"
      ],
      [
        "Ġde",
        "ath"
      ],
      [
        "Ġ",
        "i"
      ],
      [
        "Ġtr",
        "ying"
      ],
      [
        "Ġide",
        "a"
      ],
      [
        "Ġph",
        "ot"
      ],
      [
        "3",
        "0"
      ],
      [
        "Ã",
        "©"
      ],
      [
        ".",
        ","
      ],
      [
        "Ġm",
        "us"
      ],
      [
        "ie",
        "f"
      ],
      [
        "Ġacc",
        "ount"
      ],
      [
        "Ġiss",
        "ue"
      ],
      [
        "Ġm",
        "om"
      ],
      [
        "ir",
        "on"
      ],
      [
        "ĠM",
        "in"
      ],
      [
        "Ġag",
        "o"
      ],
      [
        "Ġh",
        "ig"
      ],
      [
        "sel",
        "ves"
      ],
      [
        "Ġacc",
        "ess"
      ],
      [
        "ĠCan",
        "ad"
      ],
      [
        "Ġcom",
        "es"
      ],
      [
        "Ġlook",
        "ing"
      ],
      [
        "Ġexper",
        "ience"
      ],
      [
        "re",
        "ed"
      ],
      [
        "res",
        "ent"
      ],
      [
        "ail",
        "s"
      ],
      [
        "Ġhist",
        "ory"
      ],
      [
        "re",
        "am"
      ],
      [
        "Ġem",
        "ploy"
      ],
      [
        "âĢ",
        "ĵ"
      ],
      [
        "og",
        "rap"
      ],
      [
        "Ġto",
        "get"
      ],
      [
        "Ġtoget",
        "her"
      ],
      [
        "Ġal",
        "most"
      ],
      [
        "e",
        "b"
      ],
      [
        "wit",
        "ter"
      ],
      [
        "Ġcle",
        "ar"
      ],
      [
        "ĠWh",
        "at"
      ],
      [
        "u",
        "se"
      ],
      [
        "p",
        "ro"
      ],
      [
        "ot",
        "e"
      ],
      [
        "g",
        "ed"
      ],
      [
        "Ġs",
        "ix"
      ],
      [
        "r",
        "ict"
      ],
      [
        "Ġcomm",
        "it"
      ],
      [
        "ar",
        "r"
      ],
      [
        "Ġis",
        "n"
      ],
      [
        "ĠP",
        "ol"
      ],
      [
        "ll",
        "ing"
      ],
      [
        "Ġan",
        "al"
      ],
      [
        "ab",
        "ility"
      ],
      [
        "Ġany",
        "thing"
      ],
      [
        "Ġimp",
        "ro"
      ],
      [
        "ivid",
        "ual"
      ],
      [
        "at",
        "t"
      ],
      [
        "at",
        "ors"
      ],
      [
        "ition",
        "al"
      ],
      [
        "Ġpro",
        "t"
      ],
      [
        "th",
        "ough"
      ],
      [
        "Ġl",
        "ive"
      ],
      [
        "ut",
        "es"
      ],
      [
        "Ġr",
        "ul"
      ],
      [
        "il",
        "ar"
      ],
      [
        "a",
        "id"
      ],
      [
        "Wh",
        "at"
      ],
      [
        "min",
        "ist"
      ],
      [
        "Ġr",
        "is"
      ],
      [
        "Ġ1",
        "6"
      ],
      [
        "ru",
        "g"
      ],
      [
        "ĠF",
        "l"
      ],
      [
        "in",
        "ation"
      ],
      [
        "ĠAmeric",
        "a"
      ],
      [
        "ere",
        "nce"
      ],
      [
        "ward",
        "s"
      ],
      [
        "Ġh",
        "it"
      ],
      [
        "i",
        "en"
      ],
      [
        "--",
        "--"
      ],
      [
        "Ġc",
        "a"
      ],
      [
        "ĠG",
        "r"
      ],
      [
        "ust",
        "om"
      ],
      [
        "ĠCom",
        "m"
      ],
      [
        "Ġcomple",
        "te"
      ],
      [
        "Ġpr",
        "act"
      ],
      [
        "un",
        "ch"
      ],
      [
        "Ġtr",
        "ad"
      ],
      [
        "Ġ",
        "#"
      ],
      [
        "Ġh",
        "alf"
      ],
      [
        "A",
        "T"
      ],
      [
        "Ġcomp",
        "et"
      ],
      [
        "ĠP",
        "r"
      ],
      [
        "Ġmilit",
        "ary"
      ],
      [
        "Ġsay",
        "ing"
      ],
      [
        "Ġm",
        "iss"
      ],
      [
        "Ġare",
        "a"
      ],
      [
        "Ġv",
        "ict"
      ],
      [
        "Ġ201",
        "4"
      ],
      [
        "A",
        "n"
      ],
      [
        "ĠO",
        "ne"
      ],
      [
        "ĠA",
        "m"
      ],
      [
        "'",
        "m"
      ],
      [
        "ci",
        "ally"
      ],
      [
        "a",
        "i"
      ],
      [
        "Ġcour",
        "t"
      ],
      [
        "ĠB",
        "ro"
      ],
      [
        "Ġ",
        ":"
      ],
      [
        "oc",
        "u"
      ],
      [
        "Ġm",
        "or"
      ],
      [
        "Ġb",
        "ad"
      ],
      [
        "ap",
        "er"
      ],
      [
        "ĠS",
        "ec"
      ],
      [
        "tem",
        "pt"
      ],
      [
        "Ġb",
        "ill"
      ],
      [
        "Ġpro",
        "per"
      ],
      [
        "Ġdisc",
        "uss"
      ],
      [
        "1",
        "5"
      ],
      [
        "int",
        "on"
      ],
      [
        "Ġsec",
        "urity"
      ],
      [
        "Ġne",
        "ar"
      ],
      [
        "Ġt",
        "aken"
      ],
      [
        "er",
        "man"
      ],
      [
        "Ġconc",
        "ern"
      ],
      [
        "Ġ",
        "er"
      ],
      [
        "Ġth",
        "reat"
      ],
      [
        "Ġs",
        "w"
      ],
      [
        "ro",
        "te"
      ],
      [
        "le",
        "ment"
      ],
      [
        "Ġpres",
        "ent"
      ],
      [
        "u",
        "ge"
      ],
      [
        "Ġind",
        "ividual"
      ],
      [
        "Ġbeh",
        "ind"
      ],
      [
        "Ġf",
        "av"
      ],
      [
        "Ġm",
        "ult"
      ],
      [
        "ĠN",
        "orth"
      ],
      [
        "y",
        "n"
      ],
      [
        "ĠA",
        "ust"
      ],
      [
        "c",
        "er"
      ],
      [
        "Ġent",
        "ire"
      ],
      [
        "Ġserv",
        "ice"
      ],
      [
        "Ġstud",
        "y"
      ],
      [
        "Ġpolic",
        "y"
      ],
      [
        "Ġs",
        "al"
      ],
      [
        "Ġfil",
        "m"
      ],
      [
        "ra",
        "w"
      ],
      [
        "e",
        "v"
      ],
      [
        "Ġcom",
        "b"
      ],
      [
        "ar",
        "ter"
      ],
      [
        "ir",
        "c"
      ],
      [
        "Ġs",
        "um"
      ],
      [
        "Ġf",
        "all"
      ],
      [
        "Ġbr",
        "ing"
      ],
      [
        "Ġtr",
        "y"
      ],
      [
        "Ġqu",
        "ick"
      ],
      [
        "Ġto",
        "t"
      ],
      [
        "Ġp",
        "ubl"
      ],
      [
        "ĠB",
        "rit"
      ],
      [
        "Ġr",
        "ather"
      ],
      [
        "ar",
        "m"
      ],
      [
        "Ġplay",
        "er"
      ],
      [
        "Ġt",
        "aking"
      ],
      [
        "ĠT",
        "o"
      ],
      [
        "Ġcomp",
        "an"
      ],
      [
        "O",
        "n"
      ],
      [
        "Ġf",
        "ace"
      ],
      [
        "at",
        "ic"
      ],
      [
        "Ġ",
        "z"
      ],
      [
        "Ġsp",
        "ace"
      ],
      [
        "if",
        "y"
      ],
      [
        "o",
        "ff"
      ],
      [
        "ĠE",
        "ng"
      ],
      [
        "ĠC",
        "al"
      ],
      [
        "ĠW",
        "orld"
      ],
      [
        "s",
        "w"
      ],
      [
        "Ġc",
        "ult"
      ],
      [
        "Ġm",
        "ess"
      ],
      [
        "R",
        "E"
      ],
      [
        "Ġbl",
        "ack"
      ],
      [
        "Ġfr",
        "ont"
      ],
      [
        "ĠA",
        "f"
      ],
      [
        "Ġsing",
        "le"
      ],
      [
        "Ġc",
        "oun"
      ],
      [
        "o",
        "ll"
      ],
      [
        "ĠW",
        "ar"
      ],
      [
        "Ġsome",
        "one"
      ],
      [
        "s",
        "y"
      ],
      [
        "id",
        "s"
      ],
      [
        "pl",
        "ay"
      ],
      [
        "p",
        "ar"
      ],
      [
        "Ġ1",
        "4"
      ],
      [
        "Ġpoint",
        "s"
      ],
      [
        "Ġre",
        "du"
      ],
      [
        "Ġfo",
        "ot"
      ],
      [
        "Ġcom",
        "pl"
      ],
      [
        "ĠM",
        "an"
      ],
      [
        "Ġspe",
        "cial"
      ],
      [
        "ĠD",
        "ep"
      ],
      [
        "ĠD",
        "on"
      ],
      [
        "p",
        "ly"
      ],
      [
        "W",
        "hen"
      ],
      [
        "ĠN",
        "ational"
      ],
      [
        "g",
        "o"
      ],
      [
        "Ġat",
        "tempt"
      ],
      [
        "Ġj",
        "o"
      ],
      [
        "Ġsign",
        "ific"
      ],
      [
        "o",
        "on"
      ],
      [
        "Ġw",
        "rote"
      ],
      [
        "Ġfe",
        "at"
      ],
      [
        "ra",
        "el"
      ],
      [
        "Ġdec",
        "ision"
      ],
      [
        "Ġright",
        "s"
      ],
      [
        "Ġle",
        "arn"
      ],
      [
        "Ġhow",
        "ever"
      ],
      [
        "ĠC",
        "ity"
      ],
      [
        "Ġ",
        "..."
      ],
      [
        "ir",
        "l"
      ],
      [
        "Ġke",
        "y"
      ],
      [
        "A",
        "d"
      ],
      [
        "Ġc",
        "ou"
      ],
      [
        "Ġm",
        "ind"
      ],
      [
        "c",
        "hes"
      ],
      [
        "Ġel",
        "se"
      ],
      [
        "Ġpre",
        "t"
      ],
      [
        "Ġs",
        "us"
      ],
      [
        "Ġcom",
        "ing"
      ],
      [
        "Ġwant",
        "ed"
      ],
      [
        "I",
        "N"
      ],
      [
        "ã",
        "ģ"
      ],
      [
        "c",
        "ing"
      ],
      [
        "rem",
        "e"
      ],
      [
        "Ġprob",
        "ably"
      ],
      [
        "ashing",
        "ton"
      ],
      [
        "Ġstud",
        "ents"
      ],
      [
        "Ġdesc",
        "rib"
      ],
      [
        "am",
        "ed"
      ],
      [
        "Ġben",
        "ef"
      ],
      [
        "Ġrese",
        "arch"
      ],
      [
        "1",
        "6"
      ],
      [
        "Ġe",
        "ither"
      ],
      [
        ".",
        ")"
      ],
      [
        "ow",
        "s"
      ],
      [
        "Ġcon",
        "v"
      ],
      [
        "/",
        "/"
      ],
      [
        "ive",
        "ly"
      ],
      [
        "ic",
        "ult"
      ],
      [
        "ull",
        "y"
      ],
      [
        "n",
        "es"
      ],
      [
        "ac",
        "es"
      ],
      [
        "Ġcon",
        "nect"
      ],
      [
        "Th",
        "at"
      ],
      [
        "o",
        "ver"
      ],
      [
        "pp",
        "ing"
      ],
      [
        "Ġc",
        "and"
      ],
      [
        "Ġb",
        "ody"
      ],
      [
        "Ġim",
        "m"
      ],
      [
        "Ġh",
        "ouse"
      ],
      [
        "ĠI",
        "m"
      ],
      [
        "Ġiss",
        "ues"
      ],
      [
        "r",
        "an"
      ],
      [
        "ĠJ",
        "an"
      ],
      [
        "ĠCl",
        "inton"
      ],
      [
        "Ġar",
        "gu"
      ],
      [
        "Ġcompan",
        "ies"
      ],
      [
        "Ġfo",
        "od"
      ],
      [
        "tt",
        "p"
      ],
      [
        "Ġm",
        "ass"
      ],
      [
        "Ġnot",
        "hing"
      ],
      [
        "Ġf",
        "ig"
      ],
      [
        "ol",
        "ution"
      ],
      [
        "Ġt",
        "arg"
      ],
      [
        "Ġe",
        "y"
      ],
      [
        "Ġen",
        "c"
      ],
      [
        "Ġw",
        "a"
      ],
      [
        "ri",
        "ed"
      ],
      [
        "as",
        "ing"
      ],
      [
        "Ġsu",
        "per"
      ],
      [
        "v",
        "iron"
      ],
      [
        "el",
        "t"
      ],
      [
        "Ġlead",
        "ers"
      ],
      [
        "ent",
        "ly"
      ],
      [
        "Ġsim",
        "ilar"
      ],
      [
        "1",
        "4"
      ],
      [
        "a",
        "ult"
      ],
      [
        "Ġro",
        "le"
      ],
      [
        "Ġfin",
        "al"
      ],
      [
        "ĠD",
        "av"
      ],
      [
        "Ġprote",
        "ct"
      ],
      [
        "a",
        "ut"
      ],
      [
        "Ġf",
        "urther"
      ],
      [
        "iv",
        "il"
      ],
      [
        "m",
        "b"
      ],
      [
        "Ġ201",
        "3"
      ],
      [
        "Ġt",
        "em"
      ],
      [
        "um",
        "b"
      ],
      [
        "Ġch",
        "all"
      ],
      [
        "Ġ1",
        "7"
      ],
      [
        "Ġcharac",
        "ter"
      ],
      [
        "Ġofficial",
        "s"
      ],
      [
        "Ġrel",
        "ations"
      ],
      [
        "pe",
        "cially"
      ],
      [
        "ro",
        "du"
      ],
      [
        "Ġme",
        "as"
      ],
      [
        "Ġd",
        "ue"
      ],
      [
        "Ġ201",
        "7"
      ],
      [
        "Ġex",
        "ist"
      ],
      [
        "Ġro",
        "om"
      ],
      [
        "Ġrele",
        "ased"
      ],
      [
        "p",
        "ite"
      ],
      [
        "Ġre",
        "pl"
      ],
      [
        "Ġd",
        "ocu"
      ],
      [
        "Ġf",
        "ire"
      ],
      [
        "Ġst",
        "ep"
      ],
      [
        "Ġ1",
        "3"
      ],
      [
        "Ġth",
        "ird"
      ],
      [
        "Ġbe",
        "gin"
      ],
      [
        "Ġf",
        "ield"
      ],
      [
        "Ġ",
        "Â"
      ],
      [
        "Ġc",
        "ustom"
      ],
      [
        "ib",
        "ility"
      ],
      [
        "Ġseem",
        "s"
      ],
      [
        "Ġprov",
        "ide"
      ],
      [
        "id",
        "ay"
      ],
      [
        "ad",
        "es"
      ],
      [
        "Ġwho",
        "le"
      ],
      [
        "Ġst",
        "ates"
      ],
      [
        "C",
        "h"
      ],
      [
        "ĠW",
        "ith"
      ],
      [
        "Ġst",
        "op"
      ],
      [
        "Ġbe",
        "gan"
      ],
      [
        "ĠS",
        "u"
      ],
      [
        "Ġd",
        "am"
      ],
      [
        "Ġp",
        "ick"
      ],
      [
        "Ġw",
        "atch"
      ],
      [
        "Ġst",
        "ri"
      ],
      [
        "Ġtr",
        "a"
      ],
      [
        "ang",
        "u"
      ],
      [
        "ĠW",
        "ashington"
      ],
      [
        "Ġout",
        "side"
      ],
      [
        "e",
        "al"
      ],
      [
        "ĠE",
        "d"
      ],
      [
        "r",
        "ing"
      ],
      [
        "Ġex",
        "ec"
      ],
      [
        "O",
        "N"
      ],
      [
        "ace",
        "book"
      ],
      [
        "Ġin",
        "it"
      ],
      [
        "ĠIn",
        "tern"
      ],
      [
        "ĠA",
        "ss"
      ],
      [
        "Ġevery",
        "thing"
      ],
      [
        "Ġt",
        "re"
      ],
      [
        "he",
        "ad"
      ],
      [
        "ĠA",
        "pp"
      ],
      [
        "Ġ201",
        "2"
      ],
      [
        "Ġ1",
        "00"
      ],
      [
        "ac",
        "ed"
      ],
      [
        "u",
        "ation"
      ],
      [
        "Ġhour",
        "s"
      ],
      [
        "Ġinter",
        "view"
      ],
      [
        "Ġgroup",
        "s"
      ],
      [
        "Ġinf",
        "l"
      ],
      [
        "st",
        "it"
      ],
      [
        "S",
        "o"
      ],
      [
        "I",
        "S"
      ],
      [
        "Ġl",
        "ab"
      ],
      [
        "ourn",
        "al"
      ],
      [
        "ĠHow",
        "ever"
      ],
      [
        "l",
        "ike"
      ],
      [
        "Ġcre",
        "ate"
      ],
      [
        "Ġsignific",
        "ant"
      ],
      [
        "Ġbre",
        "ak"
      ],
      [
        "a",
        "ul"
      ],
      [
        "Ġbec",
        "ame"
      ],
      [
        "Ġcount",
        "ries"
      ],
      [
        "Ġne",
        "g"
      ],
      [
        "Ġd",
        "rug"
      ],
      [
        "Ġam",
        "ount"
      ],
      [
        "Ġs",
        "ound"
      ],
      [
        "Ġstate",
        "ment"
      ],
      [
        "am",
        "er"
      ],
      [
        "Ġo",
        "pt"
      ],
      [
        "Ġab",
        "ove"
      ],
      [
        "un",
        "g"
      ],
      [
        "ar",
        "th"
      ],
      [
        "ograp",
        "h"
      ],
      [
        "1",
        "3"
      ],
      [
        "a",
        "pe"
      ],
      [
        ":",
        "//"
      ],
      [
        "at",
        "tle"
      ],
      [
        "Ġf",
        "ederal"
      ],
      [
        "Ġm",
        "atter"
      ],
      [
        "Ġprof",
        "ess"
      ],
      [
        "ĠIs",
        "rael"
      ],
      [
        "ĠS",
        "outh"
      ],
      [
        "Ġoff",
        "ice"
      ],
      [
        "Ġhim",
        "self"
      ],
      [
        "Ġcontin",
        "ue"
      ],
      [
        "arl",
        "ier"
      ],
      [
        "A",
        "N"
      ],
      [
        "an",
        "a"
      ],
      [
        "Ġa",
        "ction"
      ],
      [
        "Ġad",
        "minist"
      ],
      [
        "Ġ19",
        "8"
      ],
      [
        "ĠG",
        "e"
      ],
      [
        "er",
        "y"
      ],
      [
        "Ġdevelop",
        "ment"
      ],
      [
        "ĠG",
        "u"
      ],
      [
        "Ġthem",
        "selves"
      ],
      [
        "n",
        "ow"
      ],
      [
        "r",
        "is"
      ],
      [
        "Ġse",
        "lf"
      ],
      [
        "Ġit",
        "self"
      ],
      [
        "Ġtr",
        "ue"
      ],
      [
        "r",
        "ight"
      ],
      [
        "il",
        "t"
      ],
      [
        "Ġst",
        "at"
      ],
      [
        "i",
        "od"
      ],
      [
        "ĠP",
        "art"
      ],
      [
        "Ġpos",
        "ition"
      ],
      [
        "e",
        "ks"
      ],
      [
        "l",
        "im"
      ],
      [
        "an",
        "ks"
      ],
      [
        "Ġc",
        "op"
      ],
      [
        "*",
        "*"
      ],
      [
        "Ġadd",
        "ress"
      ],
      [
        "ob",
        "al"
      ],
      [
        "Ġspec",
        "ific"
      ],
      [
        "og",
        "le"
      ],
      [
        "Ġd",
        "om"
      ],
      [
        "Ġd",
        "ou"
      ],
      [
        "Ġph",
        "ys"
      ],
      [
        "Ġl",
        "arg"
      ],
      [
        "ĠR",
        "es"
      ],
      [
        "il",
        "i"
      ],
      [
        "end",
        "er"
      ],
      [
        "rib",
        "ut"
      ],
      [
        "Â",
        "Ń"
      ],
      [
        "o",
        "id"
      ],
      [
        "se",
        "c"
      ],
      [
        "idd",
        "le"
      ],
      [
        "Ġrep",
        "resent"
      ],
      [
        "Ġshow",
        "s"
      ],
      [
        "Ġwom",
        "an"
      ],
      [
        "Ġsim",
        "ply"
      ],
      [
        "Ġ2",
        "5"
      ],
      [
        "Ġev",
        "idence"
      ],
      [
        "Ġen",
        "er"
      ],
      [
        "Ġinclud",
        "e"
      ],
      [
        "Ġresp",
        "ons"
      ],
      [
        "Ġm",
        "ot"
      ],
      [
        "Ġplay",
        "ed"
      ],
      [
        "Ġcand",
        "id"
      ],
      [
        "B",
        "C"
      ],
      [
        "ĠJ",
        "ust"
      ],
      [
        "as",
        "k"
      ],
      [
        "Ġg",
        "round"
      ],
      [
        "ab",
        "l"
      ],
      [
        "'",
        "ll"
      ],
      [
        "ĠSy",
        "ri"
      ],
      [
        "te",
        "e"
      ],
      [
        "ĠE",
        "n"
      ],
      [
        "ĠO",
        "ct"
      ],
      [
        "Ġindust",
        "ry"
      ],
      [
        "Ġwas",
        "n"
      ],
      [
        "Ġj",
        "ud"
      ],
      [
        "viron",
        "ment"
      ],
      [
        "Ġneed",
        "s"
      ],
      [
        "Ġt",
        "reat"
      ],
      [
        "if",
        "t"
      ],
      [
        "Ġde",
        "ep"
      ],
      [
        "Ġal",
        "leg"
      ],
      [
        "Ġrun",
        "ning"
      ],
      [
        "Ġvers",
        "ion"
      ],
      [
        "Ġag",
        "ree"
      ],
      [
        "A",
        "R"
      ],
      [
        "1",
        "7"
      ],
      [
        "Ġty",
        "p"
      ],
      [
        "at",
        "ur"
      ],
      [
        "Ġdiff",
        "icult"
      ],
      [
        "Ġbl",
        "ock"
      ],
      [
        "Ġbel",
        "ow"
      ],
      [
        "Ġ",
        "Ð"
      ],
      [
        "Ġgener",
        "al"
      ],
      [
        "Ġpret",
        "ty"
      ],
      [
        "Ġm",
        "ag"
      ],
      [
        "re",
        "g"
      ],
      [
        "om",
        "m"
      ],
      [
        "Ġrele",
        "ase"
      ],
      [
        "Ġbuild",
        "ing"
      ],
      [
        "b",
        "o"
      ],
      [
        "Ġplay",
        "ing"
      ],
      [
        "Ġneed",
        "ed"
      ],
      [
        "og",
        "n"
      ],
      [
        "Ġex",
        "c"
      ],
      [
        "Ġa",
        "p"
      ],
      [
        "Ġh",
        "ost"
      ],
      [
        "Ġe",
        "p"
      ],
      [
        "Ġb",
        "illion"
      ],
      [
        "w",
        "w"
      ],
      [
        "ĠB",
        "ar"
      ],
      [
        "Ġleg",
        "al"
      ],
      [
        "Ġon",
        "line"
      ],
      [
        "Ġab",
        "s"
      ],
      [
        "Ġin",
        "j"
      ],
      [
        "l",
        "am"
      ],
      [
        "n",
        "ed"
      ],
      [
        "Ġre",
        "d"
      ],
      [
        "Ġl",
        "ate"
      ],
      [
        "ĠCh",
        "ina"
      ],
      [
        "Ġfriend",
        "s"
      ],
      [
        "Ġp",
        "ain"
      ],
      [
        "Ġd",
        "est"
      ],
      [
        "Ġg",
        "en"
      ],
      [
        "ĠH",
        "is"
      ],
      [
        "med",
        "i"
      ],
      [
        "Ġmus",
        "ic"
      ],
      [
        "ĠS",
        "ep"
      ],
      [
        "Ġh",
        "om"
      ],
      [
        "ĠA",
        "b"
      ],
      [
        "Ġwe",
        "eks"
      ],
      [
        "Ġs",
        "ense"
      ],
      [
        "Ġes",
        "pecially"
      ],
      [
        "ĠT",
        "witter"
      ],
      [
        "Ġqu",
        "ite"
      ],
      [
        "H",
        "ow"
      ],
      [
        "Ġan",
        "im"
      ],
      [
        "Ġsa",
        "w"
      ],
      [
        "1",
        "8"
      ],
      [
        "Ġrecent",
        "ly"
      ],
      [
        "Ġdet",
        "er"
      ],
      [
        "cc",
        "ording"
      ],
      [
        "ag",
        "er"
      ],
      [
        "Ġ",
        "|"
      ],
      [
        "Ġ5",
        "0"
      ],
      [
        "Ġwh",
        "ite"
      ],
      [
        "ĠNew",
        "s"
      ],
      [
        "ĠM",
        "ed"
      ],
      [
        "Ġr",
        "ad"
      ],
      [
        "Ġfor",
        "ward"
      ],
      [
        "Ġevery",
        "one"
      ],
      [
        "le",
        "v"
      ],
      [
        "w",
        "here"
      ],
      [
        "Ġe",
        "lection"
      ],
      [
        "Ġg",
        "un"
      ],
      [
        "op",
        "h"
      ],
      [
        "Ġcomm",
        "on"
      ],
      [
        "Ġvot",
        "e"
      ],
      [
        "Ġd",
        "i"
      ],
      [
        "ep",
        "end"
      ],
      [
        "Ġserv",
        "ices"
      ],
      [
        "A",
        "S"
      ],
      [
        "..",
        ".."
      ],
      [
        "ĠA",
        "fter"
      ],
      [
        "ĠWh",
        "ite"
      ],
      [
        "Ġed",
        "uc"
      ],
      [
        "t",
        "ime"
      ],
      [
        "Ġopp",
        "ortun"
      ],
      [
        "Ġb",
        "all"
      ],
      [
        "Ġch",
        "arg"
      ],
      [
        "Ġl",
        "ost"
      ],
      [
        "Ġchang",
        "es"
      ],
      [
        "Ġfoc",
        "us"
      ],
      [
        "Ġtechn",
        "ology"
      ],
      [
        "Ġso",
        "ld"
      ],
      [
        "i",
        "que"
      ],
      [
        "os",
        "ing"
      ],
      [
        "Ġper",
        "iod"
      ],
      [
        "Ġac",
        "cept"
      ],
      [
        "on",
        "se"
      ],
      [
        "c",
        "he"
      ],
      [
        "ĠG",
        "erman"
      ],
      [
        "or",
        "ing"
      ],
      [
        "Ġb",
        "ar"
      ],
      [
        "iv",
        "al"
      ],
      [
        "Ġso",
        "on"
      ],
      [
        "Ġener",
        "gy"
      ],
      [
        "Ġsu",
        "ff"
      ],
      [
        "ĠRepublic",
        "an"
      ],
      [
        "Ġeconom",
        "ic"
      ],
      [
        "Ġp",
        "le"
      ],
      [
        "Ġp",
        "arent"
      ],
      [
        "Ġlong",
        "er"
      ],
      [
        "h",
        "od"
      ],
      [
        "Ġcont",
        "ract"
      ],
      [
        "Ġs",
        "ite"
      ],
      [
        "ĠAust",
        "ral"
      ],
      [
        "__",
        "__"
      ],
      [
        "o",
        "ke"
      ],
      [
        "Ġp",
        "red"
      ],
      [
        "m",
        "e"
      ],
      [
        "Ġl",
        "ed"
      ],
      [
        "Ġtr",
        "ack"
      ],
      [
        "ĠC",
        "ong"
      ],
      [
        "ĠW",
        "est"
      ],
      [
        "Ġt",
        "it"
      ],
      [
        "Ġhe",
        "ld"
      ],
      [
        "ĠH",
        "ar"
      ],
      [
        "Ġup",
        "d"
      ],
      [
        "ir",
        "m"
      ],
      [
        "Ġinst",
        "ead"
      ],
      [
        "ĠW",
        "ill"
      ],
      [
        "u",
        "ary"
      ],
      [
        "ist",
        "ic"
      ],
      [
        "Ġ",
        ")"
      ],
      [
        "Ġl",
        "o"
      ],
      [
        "Ġrel",
        "ig"
      ],
      [
        "Ġhop",
        "e"
      ],
      [
        "Ġc",
        "irc"
      ],
      [
        "ĠM",
        "us"
      ],
      [
        "ight",
        "s"
      ],
      [
        "d",
        "en"
      ],
      [
        "is",
        "c"
      ],
      [
        "Ġc",
        "red"
      ],
      [
        "Ġresult",
        "s"
      ],
      [
        "Ġl",
        "angu"
      ],
      [
        "Ġwr",
        "ong"
      ],
      [
        "Ġst",
        "ay"
      ],
      [
        "Ġdec",
        "l"
      ],
      [
        "Ġperson",
        "al"
      ],
      [
        "Ġgo",
        "al"
      ],
      [
        "ic",
        "ro"
      ],
      [
        "c",
        "il"
      ],
      [
        "ĠM",
        "arch"
      ],
      [
        "Ġsh",
        "are"
      ],
      [
        "ĠDep",
        "artment"
      ],
      [
        "Ġcons",
        "um"
      ],
      [
        "am",
        "ent"
      ],
      [
        "Ġ2",
        "4"
      ],
      [
        "ir",
        "t"
      ],
      [
        "o",
        "le"
      ],
      [
        "Ġre",
        "ve"
      ],
      [
        "ke",
        "y"
      ],
      [
        "ac",
        "hed"
      ],
      [
        "Ġris",
        "k"
      ],
      [
        "Ġexp",
        "ress"
      ],
      [
        "Ġsh",
        "oot"
      ],
      [
        "Ġob",
        "ject"
      ],
      [
        "Ġche",
        "ck"
      ],
      [
        "u",
        "le"
      ],
      [
        "Ġmom",
        "ent"
      ],
      [
        "ĠRuss",
        "ia"
      ],
      [
        "du",
        "ct"
      ],
      [
        "Ġval",
        "ue"
      ],
      [
        "ĠA",
        "ug"
      ],
      [
        "Ġcons",
        "ider"
      ],
      [
        "Ġwor",
        "ks"
      ],
      [
        "2",
        "5"
      ],
      [
        "ul",
        "arly"
      ],
      [
        "Ġp",
        "ie"
      ],
      [
        "Ġc",
        "e"
      ],
      [
        "Ġv",
        "ol"
      ],
      [
        "ri",
        "pt"
      ],
      [
        "ĠC",
        "ar"
      ],
      [
        "The",
        "y"
      ],
      [
        "Ġh",
        "y"
      ],
      [
        "y",
        "le"
      ],
      [
        "id",
        "ing"
      ],
      [
        "f",
        "ect"
      ],
      [
        "Ġapp",
        "lic"
      ],
      [
        "Ġst",
        "aff"
      ],
      [
        "Ġpot",
        "ential"
      ],
      [
        "Ġlaw",
        "s"
      ],
      [
        "Ġne",
        "cess"
      ],
      [
        "n",
        "ers"
      ],
      [
        "Ġan",
        "sw"
      ],
      [
        "Ġtot",
        "al"
      ],
      [
        "Ġant",
        "i"
      ],
      [
        "Ġpr",
        "im"
      ],
      [
        "ove",
        "red"
      ],
      [
        "Ġannoun",
        "ced"
      ],
      [
        "Ġhig",
        "her"
      ],
      [
        "h",
        "am"
      ],
      [
        "Ġm",
        "at"
      ],
      [
        "ĠM",
        "y"
      ],
      [
        "ĠM",
        "ich"
      ],
      [
        "Ġde",
        "ad"
      ],
      [
        "Ġsub",
        "ject"
      ],
      [
        "Ġs",
        "en"
      ],
      [
        "ĠD",
        "r"
      ],
      [
        "pr",
        "il"
      ],
      [
        "e",
        "ch"
      ],
      [
        "ĠJ",
        "uly"
      ],
      [
        "ag",
        "ing"
      ],
      [
        "Ġst",
        "ru"
      ],
      [
        "A",
        "l"
      ],
      [
        "ang",
        "er"
      ],
      [
        "Ġart",
        "icle"
      ],
      [
        "b",
        "it"
      ],
      [
        "ĠThe",
        "se"
      ],
      [
        "le",
        "ge"
      ],
      [
        "as",
        "ons"
      ],
      [
        "Ġw",
        "ind"
      ],
      [
        "Ġres",
        "pect"
      ],
      [
        "o",
        "e"
      ],
      [
        "ond",
        "ay"
      ],
      [
        "Ġt",
        "al"
      ],
      [
        "Ġcomp",
        "ut"
      ],
      [
        "h",
        "aps"
      ],
      [
        "Ġre",
        "v"
      ],
      [
        "Ġfin",
        "an"
      ],
      [
        "P",
        "h"
      ],
      [
        "ĠR",
        "ed"
      ],
      [
        "ĠF",
        "acebook"
      ],
      [
        "Ġword",
        "s"
      ],
      [
        "ĠJ",
        "une"
      ],
      [
        "Ġany",
        "one"
      ],
      [
        "i",
        "j"
      ],
      [
        "Ġe",
        "arlier"
      ],
      [
        "f",
        "er"
      ],
      [
        "p",
        "ut"
      ],
      [
        "Ġb",
        "ase"
      ],
      [
        "Ġcom",
        "ment"
      ],
      [
        "Ġpop",
        "ular"
      ],
      [
        "il",
        "ities"
      ],
      [
        "Ġa",
        "ge"
      ],
      [
        "ĠP",
        "e"
      ],
      [
        "Ġkill",
        "ed"
      ],
      [
        "Ġcre",
        "ated"
      ],
      [
        "ĠCong",
        "ress"
      ],
      [
        "re",
        "et"
      ],
      [
        "ĠN",
        "e"
      ],
      [
        "Ġ201",
        "1"
      ],
      [
        "Ġsur",
        "pr"
      ],
      [
        "Ġrece",
        "ived"
      ],
      [
        "ud",
        "e"
      ],
      [
        "Ġpriv",
        "ate"
      ],
      [
        "i",
        "ents"
      ],
      [
        "Ġwe",
        "bs"
      ],
      [
        "Ġw",
        "ays"
      ],
      [
        "Ġresp",
        "onse"
      ],
      [
        "Ġproble",
        "ms"
      ],
      [
        "Ġexpect",
        "ed"
      ],
      [
        "Ġeas",
        "y"
      ],
      [
        "ill",
        "s"
      ],
      [
        "ĠN",
        "ot"
      ],
      [
        "ok",
        "es"
      ],
      [
        "c",
        "ast"
      ],
      [
        "l",
        "t"
      ],
      [
        "Ġsc",
        "ient"
      ],
      [
        "ĠP",
        "al"
      ],
      [
        "v",
        "al"
      ],
      [
        "ot",
        "o"
      ],
      [
        "Ġcap",
        "t"
      ],
      [
        "end",
        "s"
      ],
      [
        "Ġre",
        "view"
      ],
      [
        "Ġc",
        "ivil"
      ],
      [
        "et",
        "er"
      ],
      [
        "Ġw",
        "alk"
      ],
      [
        "Ġfun",
        "ction"
      ],
      [
        "Ġbro",
        "ad"
      ],
      [
        "ater",
        "ial"
      ],
      [
        "m",
        "p"
      ],
      [
        "Ġsh",
        "ot"
      ],
      [
        "Ġm",
        "other"
      ],
      [
        "Ġd",
        "iv"
      ],
      [
        "Ġinvol",
        "ved"
      ],
      [
        "am",
        "s"
      ],
      [
        "her",
        "n"
      ],
      [
        "Ġexec",
        "ut"
      ],
      [
        "act",
        "ion"
      ],
      [
        "Ġa",
        "ud"
      ],
      [
        "Ġmin",
        "utes"
      ],
      [
        "ĠS",
        "m"
      ],
      [
        "Ġtarg",
        "et"
      ],
      [
        "ip",
        "le"
      ],
      [
        "ĠG",
        "od"
      ],
      [
        "our",
        "t"
      ],
      [
        "ĠM",
        "onday"
      ],
      [
        "Ġincre",
        "ase"
      ],
      [
        "av",
        "ing"
      ],
      [
        "Ġr",
        "ate"
      ],
      [
        "em",
        "ber"
      ],
      [
        "Ġo",
        "il"
      ],
      [
        "Ġp",
        "ur"
      ],
      [
        "Ġd",
        "en"
      ],
      [
        "Ġquest",
        "ions"
      ],
      [
        "Ġp",
        "ort"
      ],
      [
        "he",
        "l"
      ],
      [
        "ate",
        "g"
      ],
      [
        "i",
        "res"
      ],
      [
        "at",
        "ural"
      ],
      [
        "Ġresp",
        "ond"
      ],
      [
        "is",
        "l"
      ],
      [
        "Ġimp",
        "act"
      ],
      [
        "Ġne",
        "arly"
      ],
      [
        "Ġ19",
        "7"
      ],
      [
        "Ġins",
        "ide"
      ],
      [
        "Ġter",
        "ror"
      ],
      [
        "ĠGo",
        "ogle"
      ],
      [
        "Ġfav",
        "or"
      ],
      [
        "Ġen",
        "vironment"
      ],
      [
        "ct",
        "or"
      ],
      [
        "ĠM",
        "e"
      ],
      [
        "ap",
        "an"
      ],
      [
        "ues",
        "day"
      ],
      [
        "ll",
        "ig"
      ],
      [
        "Ġcl",
        "ub"
      ],
      [
        "it",
        "iz"
      ],
      [
        "c",
        "le"
      ],
      [
        "Ġc",
        "ode"
      ],
      [
        "Ġp",
        "ack"
      ],
      [
        "ĠFr",
        "iday"
      ],
      [
        "pl",
        "es"
      ],
      [
        "ĠA",
        "pril"
      ],
      [
        "Ġc",
        "ases"
      ],
      [
        "A",
        "t"
      ],
      [
        "Ġrelations",
        "hip"
      ],
      [
        "Ġn",
        "ation"
      ],
      [
        "E",
        "S"
      ],
      [
        "h",
        "ood"
      ],
      [
        "u",
        "el"
      ],
      [
        "ĠS",
        "an"
      ],
      [
        "6",
        "0"
      ],
      [
        "Ġintern",
        "ational"
      ],
      [
        "Ġf",
        "ans"
      ],
      [
        "Ġspe",
        "ak"
      ],
      [
        "T",
        "o"
      ],
      [
        "Ġdirect",
        "or"
      ],
      [
        "re",
        "l"
      ],
      [
        "Ġcan",
        "not"
      ],
      [
        "Ġa",
        "verage"
      ],
      [
        "Ġfor",
        "ce"
      ],
      [
        "on",
        "st"
      ],
      [
        "Ġ",
        "ur"
      ],
      [
        "ll",
        "ed"
      ],
      [
        "Ġle",
        "ave"
      ],
      [
        "Ġf",
        "em"
      ],
      [
        "Ġbec",
        "om"
      ],
      [
        "Ġreport",
        "s"
      ],
      [
        "r",
        "ain"
      ],
      [
        "Ġab",
        "ility"
      ],
      [
        "Ġph",
        "one"
      ],
      [
        "Ġpubl",
        "ished"
      ],
      [
        "Ġorig",
        "inal"
      ],
      [
        "Ġoff",
        "er"
      ],
      [
        "vert",
        "ise"
      ],
      [
        "g",
        "ing"
      ],
      [
        "ĠC",
        "ount"
      ],
      [
        "Ġhe",
        "art"
      ],
      [
        "rough",
        "t"
      ],
      [
        "]",
        "["
      ],
      [
        "Ġex",
        "act"
      ],
      [
        "E",
        "N"
      ],
      [
        "Ġwork",
        "ed"
      ],
      [
        "Ġmod",
        "el"
      ],
      [
        "ip",
        "s"
      ],
      [
        "Ġg",
        "ave"
      ],
      [
        "Ġcurrent",
        "ly"
      ],
      [
        "ĠCal",
        "if"
      ],
      [
        "Ġso",
        "ft"
      ],
      [
        "at",
        "ives"
      ],
      [
        "ĠD",
        "o"
      ],
      [
        "Ġch",
        "ance"
      ],
      [
        "Ġw",
        "orth"
      ],
      [
        "b",
        "or"
      ],
      [
        "Ġev",
        "ents"
      ],
      [
        "ĠS",
        "ch"
      ],
      [
        "Ġg",
        "irl"
      ],
      [
        "Ġim",
        "medi"
      ],
      [
        "Ġrequ",
        "est"
      ],
      [
        "Ġsour",
        "ce"
      ],
      [
        "Ġest",
        "abl"
      ],
      [
        "ĠT",
        "uesday"
      ],
      [
        "Ġter",
        "ms"
      ],
      [
        "Ġl",
        "iving"
      ],
      [
        "n",
        "a"
      ],
      [
        "ough",
        "t"
      ],
      [
        "Ġwho",
        "se"
      ],
      [
        "Ġro",
        "ad"
      ],
      [
        "os",
        "ition"
      ],
      [
        "Ġpl",
        "ans"
      ],
      [
        "ĠWh",
        "ile"
      ],
      [
        "j",
        "oy"
      ],
      [
        "Ġ201",
        "0"
      ],
      [
        "in",
        "o"
      ],
      [
        "it",
        "es"
      ],
      [
        "Ġco",
        "ll"
      ],
      [
        "te",
        "mber"
      ],
      [
        "Ġmem",
        "ber"
      ],
      [
        "ove",
        "mber"
      ],
      [
        "Ġcont",
        "ent"
      ],
      [
        "Ġl",
        "ack"
      ],
      [
        "Ġus",
        "ers"
      ],
      [
        "om",
        "b"
      ],
      [
        "ĠJan",
        "uary"
      ],
      [
        "Ġdec",
        "ided"
      ],
      [
        "Ġl",
        "at"
      ],
      [
        "Ġrequ",
        "ire"
      ],
      [
        "olog",
        "ical"
      ],
      [
        "un",
        "t"
      ],
      [
        "b",
        "ody"
      ],
      [
        "Ġdef",
        "in"
      ],
      [
        "Ġar",
        "rest"
      ],
      [
        "Ġbu",
        "y"
      ],
      [
        "Ġgl",
        "obal"
      ],
      [
        "Ġpr",
        "ice"
      ],
      [
        "op",
        "s"
      ],
      [
        "Ġl",
        "ives"
      ],
      [
        "O",
        "R"
      ],
      [
        "ut",
        "h"
      ],
      [
        "le",
        "x"
      ],
      [
        "Ġteam",
        "s"
      ],
      [
        "Ġp",
        "ict"
      ],
      [
        "ĠS",
        "ome"
      ],
      [
        "ĠW",
        "ed"
      ],
      [
        "ĠDav",
        "id"
      ],
      [
        "Ġass",
        "oci"
      ],
      [
        "Ġt",
        "ou"
      ],
      [
        "ĠE",
        "l"
      ],
      [
        "iz",
        "ing"
      ],
      [
        "Ġmeet",
        "ing"
      ],
      [
        "Ġnet",
        "work"
      ],
      [
        "Ġe",
        "mer"
      ],
      [
        "k",
        "y"
      ],
      [
        "Ġm",
        "id"
      ],
      [
        "ĠAmeric",
        "ans"
      ],
      [
        "Ġinfl",
        "u"
      ],
      [
        "ĠF",
        "eb"
      ],
      [
        "Ġhappen",
        "ed"
      ],
      [
        "ov",
        "ed"
      ],
      [
        "ic",
        "ated"
      ],
      [
        "ĠCanad",
        "a"
      ],
      [
        "ĠA",
        "ct"
      ],
      [
        "is",
        "es"
      ],
      [
        "Ġm",
        "aterial"
      ],
      [
        "Ġe",
        "t"
      ],
      [
        "Ġbo",
        "ard"
      ],
      [
        "Ġt",
        "akes"
      ],
      [
        "or",
        "ters"
      ],
      [
        "Ġappro",
        "ach"
      ],
      [
        "Ġsit",
        "uation"
      ],
      [
        "Ġty",
        "pe"
      ],
      [
        "nes",
        "day"
      ],
      [
        "ĠRuss",
        "ian"
      ],
      [
        "ĠP",
        "er"
      ],
      [
        "us",
        "ion"
      ],
      [
        "Ġwe",
        "ap"
      ],
      [
        "ĠS",
        "und"
      ],
      [
        "Ġgo",
        "es"
      ],
      [
        "ĠC",
        "or"
      ],
      [
        "\"",
        "."
      ],
      [
        "Ġaff",
        "ect"
      ],
      [
        "o",
        "or"
      ],
      [
        "Ġsp",
        "ent"
      ],
      [
        "f",
        "ully"
      ],
      [
        "a",
        "el"
      ],
      [
        "Ġfinan",
        "cial"
      ],
      [
        "a",
        "ur"
      ],
      [
        "Ġob",
        "s"
      ],
      [
        "Ġv",
        "ia"
      ],
      [
        "Ġ4",
        "0"
      ],
      [
        "ĠOct",
        "ober"
      ],
      [
        "ill",
        "ed"
      ],
      [
        "ĠG",
        "l"
      ],
      [
        "Ġturn",
        "ed"
      ],
      [
        "Ġf",
        "re"
      ],
      [
        "Ġfore",
        "ign"
      ],
      [
        "ĠB",
        "y"
      ],
      [
        "urs",
        "day"
      ],
      [
        "Ġh",
        "uge"
      ],
      [
        "Ġreg",
        "ard"
      ],
      [
[...]
